TRT-101501-MinMaxCalibration
images: 3c010204
/model.0/stem1/conv/Conv_output_0: 3d1ddfdb
/model.0/stem1/act/Relu_output_0: 3d191c9e
/model.0/Pad_output_0: 3d191c9e
/model.0/stem2a/conv/Conv_output_0: 3d333e49
/model.0/pool/MaxPool_output_0: 3d191c9e
/model.0/stem2a/act/Relu_output_0: 3d299c5d
/model.0/stem2b/conv/Conv_output_0: 3da3423f
/model.0/stem2b/act/Relu_output_0: 3da3423f
/model.0/Concat_2_output_0: 3da3423f
/model.0/stem3/conv/Conv_output_0: 3d326d3d
/model.0/stem3/act/Relu_output_0: 3cf5c4e6
/model.0/stem4/conv/Conv_output_0: 3d70937b
/model.0/stem4/act/Relu_output_0: 3d70937b
/model.1/m.0/conv/Conv_output_0: 3e626238
/model.1/m.0/act/Relu_output_0: 3d71014f
/model.1/m.1/conv/Conv_output_0: 3e8568bc
/model.1/m.1/act/Relu_output_0: 3dad73d4
/model.1/m.2/conv/Conv_output_0: 3e1f0ac7
/model.1/m.2/act/Relu_output_0: 3dcda232
/model.1/m.3/conv/Conv_output_0: 3e0660fd
/model.1/m.3/act/Relu_output_0: 3de3e385
/model.1/m.4/conv/Conv_output_0: 3df86467
/model.1/m.4/act/Relu_output_0: 3db05872
/model.1/m.5/conv/Conv_output_0: 3e2506a3
/model.1/m.5/act/Relu_output_0: 3de8fcfc
/model.1/Concat_output_0: 3de8fcfc
/model.1/sc/conv/Conv_output_0: 3eb0f51a
/model.1/sc/act/Relu_output_0: 3e984d0f
/model.1/ec/conv/Conv_output_0: 3e8ef380
/model.1/ec/act/Relu_output_0: 3e8ef380
/model.2/conv/Conv_output_0: 3e59248c
/model.3/m.0/conv/Conv_output_0: 3e699a7d
/model.3/m.0/act/Relu_output_0: 3e46c261
/model.3/m.1/conv/Conv_output_0: 3e3340e1
/model.3/m.1/act/Relu_output_0: 3e3340e1
/model.3/m.2/conv/Conv_output_0: 3e20c8df
/model.3/m.2/act/Relu_output_0: 3e20c8df
/model.3/m.3/conv/Conv_output_0: 3e136b4c
/model.3/m.3/act/Relu_output_0: 3df1daa9
/model.3/m.4/conv/Conv_output_0: 3e4be1d7
/model.3/m.4/act/Relu_output_0: 3e4be1d7
/model.3/m.5/conv/Conv_output_0: 3e5ece3e
/model.3/m.5/act/Relu_output_0: 3e56cc60
/model.3/Concat_output_0: 3e59248c
/model.3/sc/conv/Conv_output_0: 3e63fd58
/model.3/sc/act/Relu_output_0: 3e295916
/model.3/ec/conv/Conv_output_0: 3e10467a
/model.3/ec/act/Relu_output_0: 3defe352
/model.4/m.0/conv/Conv_output_0: 3e095d3e
/model.4/m.0/act/Relu_output_0: 3dd96e6c
/model.4/m.1/conv/Conv_output_0: 3e1cbf50
/model.4/m.1/act/Relu_output_0: 3dec561c
/model.4/m.2/conv/Conv_output_0: 3e07888f
/model.4/m.2/act/Relu_output_0: 3dc049b4
/model.4/m.3/conv/Conv_output_0: 3e06cf0a
/model.4/m.3/act/Relu_output_0: 3e06cf0a
/model.4/m.4/conv/Conv_output_0: 3da6eaec
/model.4/m.4/act/Relu_output_0: 3d95b70f
/model.4/m.5/conv/Conv_output_0: 3de8afb8
/model.4/m.5/act/Relu_output_0: 3dd189fc
/model.4/Concat_output_0: 3e06cf0a
/model.4/sc/conv/Conv_output_0: 3e227b45
/model.4/sc/act/Relu_output_0: 3dc94869
/model.4/ec/conv/Conv_output_0: 3e968f5b
/model.4/ec/act/Relu_output_0: 3e926346
/model.4/Add_output_0: 3e9621b2
/model.5/conv/Conv_output_0: 3e683a3c
/model.23/conv/Conv_output_0: 3da5092a
/model.6/m.0/conv1/conv/Conv_output_0: 3da749d1
/model.6/m.0/conv2/conv/Conv_output_0: 3e0ff45b
/model.6/m.0/conv2/act/Relu_output_0: 3e0ff45b
/model.6/m.1/conv1/conv/Conv_output_0: 3daec06a
/model.6/m.1/conv2/conv/Conv_output_0: 3dfe7b75
/model.6/m.1/conv2/act/Relu_output_0: 3de32367
/model.6/m.2/conv1/conv/Conv_output_0: 3db5bb44
/model.6/m.2/conv2/conv/Conv_output_0: 3e016343
/model.6/m.2/conv2/act/Relu_output_0: 3d90d017
/model.6/m.3/conv1/conv/Conv_output_0: 3d58b085
/model.6/m.3/conv2/conv/Conv_output_0: 3d88798f
/model.6/m.3/conv2/act/Relu_output_0: 3d88798f
/model.6/m.4/conv1/conv/Conv_output_0: 3d51722b
/model.6/m.4/conv2/conv/Conv_output_0: 3d52cf68
/model.6/m.4/conv2/act/Relu_output_0: 3d52cf68
/model.6/m.5/conv1/conv/Conv_output_0: 3d5af908
/model.6/m.5/conv2/conv/Conv_output_0: 3da6bbe4
/model.6/m.5/conv2/act/Relu_output_0: 3d943f3b
/model.6/Concat_output_0: 3e683a3c
/model.6/sc/conv/Conv_output_0: 3e33035e
/model.6/sc/act/Relu_output_0: 3ded7aba
/model.6/ec/conv/Conv_output_0: 3df7bba1
/model.6/ec/act/Relu_output_0: 3de01a8b
/model.7/m.0/conv1/conv/Conv_output_0: 3dd4cddd
/model.7/m.0/conv2/conv/Conv_output_0: 3dd3c83e
/model.7/m.0/conv2/act/Relu_output_0: 3dc834b4
/model.7/m.1/conv1/conv/Conv_output_0: 3d917669
/model.7/m.1/conv2/conv/Conv_output_0: 3deeea33
/model.7/m.1/conv2/act/Relu_output_0: 3deeea33
/model.7/m.2/conv1/conv/Conv_output_0: 3d9e10f3
/model.7/m.2/conv2/conv/Conv_output_0: 3df66c4a
/model.7/m.2/conv2/act/Relu_output_0: 3db6da81
/model.7/m.3/conv1/conv/Conv_output_0: 3d994da3
/model.7/m.3/conv2/conv/Conv_output_0: 3dd8dcd5
/model.7/m.3/conv2/act/Relu_output_0: 3dd8dcd5
/model.7/m.4/conv1/conv/Conv_output_0: 3d89209f
/model.7/m.4/conv2/conv/Conv_output_0: 3de99589
/model.7/m.4/conv2/act/Relu_output_0: 3d9afcd2
/model.7/m.5/conv1/conv/Conv_output_0: 3d9c83c7
/model.7/m.5/conv2/conv/Conv_output_0: 3dabcfe9
/model.7/m.5/conv2/act/Relu_output_0: 3dabcfe9
/model.7/Concat_output_0: 3deeea33
/model.7/sc/conv/Conv_output_0: 3e02abca
/model.7/sc/act/Relu_output_0: 3de436d0
/model.7/ec/conv/Conv_output_0: 3de6e1f7
/model.7/ec/act/Relu_output_0: 3de6e1f7
/model.7/Add_output_0: 3de6e1f7
/model.8/m.0/conv1/conv/Conv_output_0: 3d9eaff1
/model.8/m.0/conv2/conv/Conv_output_0: 3ddc4a6d
/model.8/m.0/conv2/act/Relu_output_0: 3dbce2f8
/model.8/m.1/conv1/conv/Conv_output_0: 3dace36a
/model.8/m.1/conv2/conv/Conv_output_0: 3dd3e5c3
/model.8/m.1/conv2/act/Relu_output_0: 3d9e8e01
/model.8/m.2/conv1/conv/Conv_output_0: 3db07073
/model.8/m.2/conv2/conv/Conv_output_0: 3d969468
/model.8/m.2/conv2/act/Relu_output_0: 3d60d81e
/model.8/m.3/conv1/conv/Conv_output_0: 3d8b0681
/model.8/m.3/conv2/conv/Conv_output_0: 3d5bc143
/model.8/m.3/conv2/act/Relu_output_0: 3d5bc143
/model.8/m.4/conv1/conv/Conv_output_0: 3d805f1d
/model.8/m.4/conv2/conv/Conv_output_0: 3d135ceb
/model.8/m.4/conv2/act/Relu_output_0: 3d135ceb
/model.8/m.5/conv1/conv/Conv_output_0: 3d3d055b
/model.8/m.5/conv2/conv/Conv_output_0: 3d3c817d
/model.8/m.5/conv2/act/Relu_output_0: 3cee03ef
/model.8/Concat_output_0: 3de6e1f7
/model.8/sc/conv/Conv_output_0: 3de2daee
/model.8/sc/act/Relu_output_0: 3d923f98
/model.8/ec/conv/Conv_output_0: 3dbab730
/model.8/ec/act/Relu_output_0: 3dbab730
/model.8/Add_output_0: 3de6e1f7
/model.9/m.0/conv1/conv/Conv_output_0: 3da154eb
/model.9/m.0/conv2/conv/Conv_output_0: 3dacc204
/model.9/m.0/conv2/act/Relu_output_0: 3dacc204
/model.9/m.1/conv1/conv/Conv_output_0: 3da1d541
/model.9/m.1/conv2/conv/Conv_output_0: 3d9cc074
/model.9/m.1/conv2/act/Relu_output_0: 3d9cc074
/model.9/m.2/conv1/conv/Conv_output_0: 3de1368e
/model.9/m.2/conv2/conv/Conv_output_0: 3db7f0e2
/model.9/m.2/conv2/act/Relu_output_0: 3da1a217
/model.9/m.3/conv1/conv/Conv_output_0: 3dbcf77f
/model.9/m.3/conv2/conv/Conv_output_0: 3d943d45
/model.9/m.3/conv2/act/Relu_output_0: 3d59e64b
/model.9/m.4/conv1/conv/Conv_output_0: 3d907e64
/model.9/m.4/conv2/conv/Conv_output_0: 3d928803
/model.9/m.4/conv2/act/Relu_output_0: 3d928803
/model.9/m.5/conv1/conv/Conv_output_0: 3d87f7b0
/model.9/m.5/conv2/conv/Conv_output_0: 3d74502d
/model.9/m.5/conv2/act/Relu_output_0: 3d74502d
/model.9/Concat_output_0: 3de6e1f7
/model.9/sc/conv/Conv_output_0: 3dc9a17b
/model.9/sc/act/Relu_output_0: 3d9dd467
/model.9/ec/conv/Conv_output_0: 3dfb478d
/model.9/ec/act/Relu_output_0: 3dfb478d
/model.9/Add_output_0: 3dfb478d
/model.10/m.0/conv1/conv/Conv_output_0: 3dc9b3f7
/model.10/m.0/conv2/conv/Conv_output_0: 3e0fdab2
/model.10/m.0/conv2/act/Relu_output_0: 3df5d369
/model.10/m.1/conv1/conv/Conv_output_0: 3dba6fe7
/model.10/m.1/conv2/conv/Conv_output_0: 3ddc6955
/model.10/m.1/conv2/act/Relu_output_0: 3dc8b737
/model.10/m.2/conv1/conv/Conv_output_0: 3db0aefd
/model.10/m.2/conv2/conv/Conv_output_0: 3d9106fd
/model.10/m.2/conv2/act/Relu_output_0: 3d9106fd
/model.10/m.3/conv1/conv/Conv_output_0: 3db2d1c2
/model.10/m.3/conv2/conv/Conv_output_0: 3d90ebac
/model.10/m.3/conv2/act/Relu_output_0: 3d90ebac
/model.10/m.4/conv1/conv/Conv_output_0: 3d7d8cc2
/model.10/m.4/conv2/conv/Conv_output_0: 3cfa022e
/model.10/m.4/conv2/act/Relu_output_0: 3cfa022e
/model.10/m.5/conv1/conv/Conv_output_0: 3d520f22
/model.10/m.5/conv2/conv/Conv_output_0: 3d1d5989
/model.10/m.5/conv2/act/Relu_output_0: 3d1d5989
/model.10/Concat_output_0: 3dfb478d
/model.10/sc/conv/Conv_output_0: 3deda075
/model.10/sc/act/Relu_output_0: 3de251fc
/model.10/ec/conv/Conv_output_0: 3eb7caba
/model.10/ec/act/Relu_output_0: 3eb7caba
/model.10/Add_output_0: 3eb85849
/model.11/conv/Conv_output_0: 3e2b22e8
/model.18/conv/Conv_output_0: 3dd625de
/model.12/m.0/conv1/conv/Conv_output_0: 3da481b9
/model.12/m.0/conv2/conv/Conv_output_0: 3e1c9de7
/model.12/m.0/conv2/act/Relu_output_0: 3e1c9de7
/model.12/m.1/conv1/conv/Conv_output_0: 3d8451a3
/model.12/m.1/conv2/conv/Conv_output_0: 3dd1c025
/model.12/m.1/conv2/act/Relu_output_0: 3dd1c025
/model.12/m.2/conv1/conv/Conv_output_0: 3d7c9141
/model.12/m.2/conv2/conv/Conv_output_0: 3d7ca249
/model.12/m.2/conv2/act/Relu_output_0: 3d699204
/model.12/m.3/conv1/conv/Conv_output_0: 3d657c39
/model.12/m.3/conv2/conv/Conv_output_0: 3d6a08e4
/model.12/m.3/conv2/act/Relu_output_0: 3d5d3110
/model.12/m.4/conv1/conv/Conv_output_0: 3d5e128b
/model.12/m.4/conv2/conv/Conv_output_0: 3d530792
/model.12/m.4/conv2/act/Relu_output_0: 3d3705fe
/model.12/m.5/conv1/conv/Conv_output_0: 3d7695c2
/model.12/m.5/conv2/conv/Conv_output_0: 3e07f194
/model.12/m.5/conv2/act/Relu_output_0: 3e07f194
/model.12/Concat_output_0: 3e2b22e8
/model.12/sc/conv/Conv_output_0: 3e00c504
/model.12/sc/act/Relu_output_0: 3dbfe3cd
/model.12/ec/conv/Conv_output_0: 3e8e81e8
/model.12/ec/act/Relu_output_0: 3e8e81e8
/model.13/m.0/conv1/conv/Conv_output_0: 3dd42f81
/model.13/m.0/conv2/conv/Conv_output_0: 3e2407da
/model.13/m.0/conv2/act/Relu_output_0: 3e2407da
/model.13/m.1/conv1/conv/Conv_output_0: 3dba601e
/model.13/m.1/conv2/conv/Conv_output_0: 3e1fbe57
/model.13/m.1/conv2/act/Relu_output_0: 3dfcdc25
/model.13/m.2/conv1/conv/Conv_output_0: 3dd0e1b6
/model.13/m.2/conv2/conv/Conv_output_0: 3e0fa344
/model.13/m.2/conv2/act/Relu_output_0: 3dc85ea9
/model.13/m.3/conv1/conv/Conv_output_0: 3ddc67c7
/model.13/m.3/conv2/conv/Conv_output_0: 3d99a877
/model.13/m.3/conv2/act/Relu_output_0: 3d8679ff
/model.13/m.4/conv1/conv/Conv_output_0: 3d8f40b6
/model.13/m.4/conv2/conv/Conv_output_0: 3d269a14
/model.13/m.4/conv2/act/Relu_output_0: 3d10cf24
/model.13/m.5/conv1/conv/Conv_output_0: 3d2974e1
/model.13/m.5/conv2/conv/Conv_output_0: 3d598cb3
/model.13/m.5/conv2/act/Relu_output_0: 3d598cb3
/model.13/Concat_output_0: 3e8e81e8
/model.13/sc/conv/Conv_output_0: 3e0a6f71
/model.13/sc/act/Relu_output_0: 3dc22049
/model.13/ec/conv/Conv_output_0: 3ef34d15
/model.13/ec/act/Relu_output_0: 3ef34d15
/model.13/Add_output_0: 3f3741c4
/model.14/conv/Conv_output_0: 3d887500
/model.15/Reshape_6_output_0: 3d887500
/model.15/Transpose_output_0: 3d887500
/model.15/ma/Transpose_1_output_0: 3d887500
/model.15/Cast_6_output_0_output: 3c010204
/model.15/Add_output_0: 3d989541
/model.15/ma/MatMul_2_pre_reshape_out: 3d887500
/model.15/ma/Transpose_output_0: 3d989541
/model.15/ma/MatMul_2_weight_output: 3b0b972e
/model.15/ma/MatMul_2_output: 3e00627d
onnx::Add_4006_output: 3ab74e9d
ONNXTRT_Broadcast_output: 3ab74e9d
/model.15/ma/MatMul_2_gemm_out: 3e0120da
/model.15/ma/MatMul_pre_reshape_out: 3d989541
/model.15/ma/Reshape_2_output_0: 3e0120da
/model.15/ma/MatMul_weight_output: 3b2a1428
/model.15/ma/MatMul_output: 3e203afd
onnx::Add_4002_output: 3a3a54a9
ONNXTRT_Broadcast_5_output: 3a3a54a9
/model.15/ma/MatMul_gemm_out: 3e202e15
/model.15/ma/MatMul_1_weight_output: 3b2060c2
/model.15/ma/MatMul_1_output: 3e5f2e1b
onnx::Add_4004_output: 391cd9b3
ONNXTRT_Broadcast_7_output: 391cd9b3
/model.15/ma/MatMul_1_gemm_out: 3e5f194e
/model.15/ma/Transpose_3_output_0: 3e0120da
/model.15/ma/Reshape_output_0: 3e202e15
/model.15/ma/Reshape_1_output_0: 3e5f194e
/model.15/ma/Transpose_2_output_0: 3e202e15
/model.15/ma/Transpose_4_output_0: 3e5f194e
/model.15/ma/Constant_7_output_0_output: 3a94f728
ONNXTRT_Broadcast_11_output: 3a94f728
/model.15/ma/Mul_1_output_0: 3cb8f5be
/model.15/ma/MatMul_3_output_0: 3fdee35a
/model.15/ma/Softmax_output: 3bced9c4
/model.15/ma/Softmax_output_0: 3bced9c4
/model.15/ma/MatMul_4_output_0: 3d1688b1
/model.15/ma/Transpose_5_output_0: 3d1688b1
/model.15/ma/Reshape_3_output_0: 3d1688b1
model.15.ma.out_proj.weight_output: 3b2ab56b
/model.15/ma/Gemm_output: 3d0a1e26
model.15.ma.out_proj.bias_output: 3b7fbf7f
ONNXTRT_Broadcast_15_output: 3b7fbf7f
/model.15/ma/Gemm_output_0: 3d1a1a1e
/model.15/ma/Reshape_4_output_0: 3d1a1a1e
/model.15/ma/Transpose_6_output_0: 3d1a1a1e
/model.15/Add_1_output_0: 3dbbcf3b
/model.15/norm1/LayerNormalization_output_0: 3d8c981c
/model.15/fc1/MatMul_pre_reshape_out: 3d8c981c
/model.15/fc1/MatMul_weight_output: 3b2a74ea
/model.15/fc1/MatMul_output: 3dc4defb
model.15.fc1.bias_output: 3b060c18
ONNXTRT_Broadcast_23_output: 3b060c18
/model.15/fc1/MatMul_gemm_out: 3dc59cd7
/model.15/fc1/Add_output_0: 3dc59cd7
/model.15/act/Gelu_output_0: 3d77cf71
/model.15/fc2/MatMul_pre_reshape_out: 3d77cf71
/model.15/fc2/MatMul_weight_output: 3b6d7af6
/model.15/fc2/MatMul_output: 3df40ff0
model.15.fc2.bias_output: 3c08d1a3
ONNXTRT_Broadcast_27_output: 3c08d1a3
/model.15/fc2/MatMul_gemm_out: 3e029512
/model.15/fc2/Add_output_0: 3e029512
/model.15/Add_2_output_0: 3e1dccaa
/model.15/norm2/LayerNormalization_output_0: 3d54f62d
/model.15/Transpose_1_output_0: 3d54f62d
/model.15/Reshape_7_output_0: 3d54f62d
/model.16/conv/Conv_output_0: 3d57da95
/model.16/act/Sigmoid_output_0: 3c00d91f
/model.16/act/Mul_output_0: 3d579629
/model.17/Resize_output_0: 3d579629
/model.19/Concat_output_0: 3dd625de
/model.20/cv1/conv/Conv_output_0: 3dde4fc4
/model.20/cv2/conv/Conv_output_0: 3df002a5
/model.20/cv1/act/Sigmoid_output_0: 3c0101fc
/model.20/cv2/act/Sigmoid_output_0: 3c010201
/model.20/cv1/act/Mul_output_0: 3dde4fb5
/model.20/cv2/act/Mul_output_0: 3df0029f
/model.20/m/m.0/conv/Conv_output_0: 3e174f0a
/model.20/m/m.0/act/Sigmoid_output_0: 3c010204
/model.20/m/m.0/act/Mul_output_0: 3e157b64
/model.20/m/m.1/conv/Conv_output_0: 3e4ce42d
/model.20/m/m.1/act/Sigmoid_output_0: 3c010204
/model.20/m/m.1/act/Mul_output_0: 3e4ce42d
/model.20/m/m.2/conv/Conv_output_0: 3e405352
/model.20/m/m.2/act/Sigmoid_output_0: 3c010204
/model.20/m/m.2/act/Mul_output_0: 3e3852bf
/model.20/Add_output_0: 3e8f1fdf
/model.21/conv/Conv_output_0: 3e11a8de
/model.21/act/Sigmoid_output_0: 3c010204
/model.21/act/Mul_output_0: 3e11a8de
/model.22/Resize_output_0: 3e11a8de
/model.24/Concat_output_0: 3e11a8de
/model.25/cv1/conv/Conv_output_0: 3dfc2e4f
/model.25/cv2/conv/Conv_output_0: 3e0f2ca2
/model.25/cv1/act/Sigmoid_output_0: 3c010203
/model.25/cv2/act/Sigmoid_output_0: 3c010203
/model.25/cv1/act/Mul_output_0: 3dfc2e4c
/model.25/cv2/act/Mul_output_0: 3dfd7a24
/model.25/m/m.0/conv/Conv_output_0: 3e936cb3
/model.25/m/m.0/act/Sigmoid_output_0: 3c010204
/model.25/m/m.0/act/Mul_output_0: 3e864476
/model.25/m/m.1/conv/Conv_output_0: 3e8e8e41
/model.25/m/m.1/act/Sigmoid_output_0: 3c010204
/model.25/m/m.1/act/Mul_output_0: 3e8c009a
/model.25/m/m.2/conv/Conv_output_0: 3e6db4dc
/model.25/m/m.2/act/Sigmoid_output_0: 3c010204
/model.25/m/m.2/act/Mul_output_0: 3e6db4dc
/model.25/Add_output_0: 3e924c72
/model.26/conv/Conv_output_0: 3df56f2c
/model.32/input_proj.0/input_proj.0.0/Conv_output_0: 3d488f3c
/model.26/act/Sigmoid_output_0: 3c010202
/model.32/Reshape_output_0: 3d488f3c
/model.26/act/Mul_output_0: 3df56f28
/model.32/Transpose_output_0: 3d488f3c
/model.27/Concat_output_0: 3e11a8de
/model.28/cv1/conv/Conv_output_0: 3e584696
/model.28/cv2/conv/Conv_output_0: 3e0467c3
/model.28/cv1/act/Sigmoid_output_0: 3c010204
/model.28/cv2/act/Sigmoid_output_0: 3c010204
/model.28/cv1/act/Mul_output_0: 3e584696
/model.28/cv2/act/Mul_output_0: 3e0467c3
/model.28/m/m.0/conv/Conv_output_0: 3e984956
/model.28/m/m.0/act/Sigmoid_output_0: 3c010204
/model.28/m/m.0/act/Mul_output_0: 3e984956
/model.28/m/m.1/conv/Conv_output_0: 3eac2044
/model.28/m/m.1/act/Sigmoid_output_0: 3c010204
/model.28/m/m.1/act/Mul_output_0: 3eac2044
/model.28/m/m.2/conv/Conv_output_0: 3ee29967
/model.28/m/m.2/act/Sigmoid_output_0: 3c010204
/model.28/m/m.2/act/Mul_output_0: 3ee29967
/model.28/Add_output_0: 3f081080
/model.29/conv/Conv_output_0: 3df40695
/model.32/input_proj.1/input_proj.1.0/Conv_output_0: 3e22374d
/model.29/act/Sigmoid_output_0: 3c010201
/model.32/Reshape_1_output_0: 3e22374d
/model.29/act/Mul_output_0: 3df4068f
/model.32/Transpose_1_output_0: 3e22374d
/model.30/Concat_output_0: 3df4068f
/model.31/cv1/conv/Conv_output_0: 3de7cde0
/model.31/cv2/conv/Conv_output_0: 3dd7d2aa
/model.31/cv1/act/Sigmoid_output_0: 3c0101ff
/model.31/cv2/act/Sigmoid_output_0: 3c0101f7
/model.31/cv1/act/Mul_output_0: 3de7cdd7
/model.31/cv2/act/Mul_output_0: 3dd7d294
/model.31/m/m.0/conv/Conv_output_0: 3e4ad4d4
/model.31/m/m.0/act/Sigmoid_output_0: 3c010204
/model.31/m/m.0/act/Mul_output_0: 3e4ad4d4
/model.31/m/m.1/conv/Conv_output_0: 3e4960bc
/model.31/m/m.1/act/Sigmoid_output_0: 3c010204
/model.31/m/m.1/act/Mul_output_0: 3e4960bc
/model.31/m/m.2/conv/Conv_output_0: 3e5eeb02
/model.31/m/m.2/act/Sigmoid_output_0: 3c010204
/model.31/m/m.2/act/Mul_output_0: 3e5eeb02
/model.31/Add_output_0: 3e972782
/model.32/input_proj.2/input_proj.2.0/Conv_output_0: 3de2bdb1
/model.32/Reshape_2_output_0: 3de2bdb1
/model.32/Transpose_2_output_0: 3de2bdb1
/model.32/Concat_3_output_0: 3e22374d
/model.32/Constant_19_output_0_output: 3c010204
/model.32/Mul_output_0: 3e22374d
/model.32/decoder/layers.0/cross_attn/value_proj/MatMul_pre_reshape_out: 3e22374d
/model.32/enc_output/enc_output.0/MatMul_pre_reshape_out: 3e22374d
/model.32/decoder/layers.0/cross_attn/value_proj/MatMul_weight_output: 3b2b162c
/model.32/decoder/layers.0/cross_attn/value_proj/MatMul_output: 3e5d3b5a
model.32.decoder.layers.0.cross_attn.value_proj.bias_output: 3ae64c99
ONNXTRT_Broadcast_40_output: 3ae64c99
/model.32/decoder/layers.0/cross_attn/value_proj/MatMul_gemm_out: 3e5d2468
/model.32/decoder/layers.1/cross_attn/value_proj/MatMul_weight_output: 3b29f3e8
/model.32/decoder/layers.1/cross_attn/value_proj/MatMul_output: 3e66d31e
model.32.decoder.layers.1.cross_attn.value_proj.bias_output: 3a8e3c79
ONNXTRT_Broadcast_42_output: 3a8e3c79
/model.32/decoder/layers.1/cross_attn/value_proj/MatMul_gemm_out: 3e670f77
/model.32/decoder/layers.2/cross_attn/value_proj/MatMul_weight_output: 3b389122
/model.32/decoder/layers.2/cross_attn/value_proj/MatMul_output: 3e5a0383
model.32.decoder.layers.2.cross_attn.value_proj.bias_output: 3a991224
ONNXTRT_Broadcast_44_output: 3a991224
/model.32/decoder/layers.2/cross_attn/value_proj/MatMul_gemm_out: 3e5a0916
/model.32/decoder/layers.3/cross_attn/value_proj/MatMul_weight_output: 3b2e5cb9
/model.32/decoder/layers.3/cross_attn/value_proj/MatMul_output: 3e22fe30
model.32.decoder.layers.3.cross_attn.value_proj.bias_output: 3a96cd9b
ONNXTRT_Broadcast_46_output: 3a96cd9b
/model.32/decoder/layers.3/cross_attn/value_proj/MatMul_gemm_out: 3e22c7f4
/model.32/decoder/layers.4/cross_attn/value_proj/MatMul_weight_output: 3b27af5f
/model.32/decoder/layers.4/cross_attn/value_proj/MatMul_output: 3e2ccad7
model.32.decoder.layers.4.cross_attn.value_proj.bias_output: 3a8972e6
ONNXTRT_Broadcast_48_output: 3a8972e6
/model.32/decoder/layers.4/cross_attn/value_proj/MatMul_gemm_out: 3e2cb6f3
/model.32/decoder/layers.5/cross_attn/value_proj/MatMul_weight_output: 3b299326
/model.32/decoder/layers.5/cross_attn/value_proj/MatMul_output: 3e1581fe
model.32.decoder.layers.5.cross_attn.value_proj.bias_output: 3a491224
ONNXTRT_Broadcast_50_output: 3a491224
/model.32/decoder/layers.5/cross_attn/value_proj/MatMul_gemm_out: 3e1599a1
/model.32/enc_output/enc_output.0/MatMul_weight_output: 3b84c993
/model.32/enc_output/enc_output.0/MatMul_output: 3e9b976e
model.32.enc_output.0.bias_output: 3bbdbb77
ONNXTRT_Broadcast_52_output: 3bbdbb77
/model.32/enc_output/enc_output.0/MatMul_gemm_out: 3e9cfdfb
/model.32/decoder/layers.0/cross_attn/Reshape_output_0: 3e5d2468
/model.32/decoder/layers.1/cross_attn/Reshape_output_0: 3e670f77
/model.32/enc_output/enc_output.0/Add_output_0: 3e9cfdfb
/model.32/decoder/layers.5/cross_attn/Reshape_8_output_0: 3e1599a1
/model.32/decoder/layers.4/self_attn/Add_output_0: 3d77f163
/model.32/decoder/layers.3/cross_attn/Reshape_1_output_0: 3d8d09d6
/model.32/decoder/layers.3/cross_attn/Transpose_6_output_0: 3bd45185
/model.32/decoder/layers.4/self_attn/MatMul_2_output_0: 3d12e2c5
onnx::Add_4345_output: 38e68d1a
/model.32/decoder/dec_score_head.5/Add_output_0: 3d960efe
ONNXTRT_Broadcast_1600_output: 3b2af5ec
/model.32/decoder/layers.5/self_attn/Reshape_output_0: 3d3cae77
/model.32/decoder/layers.5/cross_attn/Mul_1_output_0: 3c35b733
ONNXTRT_Broadcast_2209_output: 33a917dc
/model.32/decoder/layers.3/self_attn/MatMul_output_0: 3da74f90
/model.32/decoder/Sub_3_output_0: 3c003b30
/model.32/decoder/layers.3/cross_attn/Gather_10_output_0: 3c1827dc
/model.32/decoder/Add_3_output_0: 3dacdf5d
/model.32/decoder/layers.5/cross_attn/Reshape_12_output_0: 3c617836
/model.32/decoder/layers.3/cross_attn/Unsqueeze_30_output_0: 3cba9b5b
/model.32/decoder/layers.3/linear1/MatMul_output_0: 3d87cc53
ONNXTRT_Broadcast_1204_output: 3b68b163
/model.32/decoder/Clip_9_output_0: 3c010171
onnx::MatMul_4239_output: 3b4972e6
/model.32/decoder/layers.3/self_attn/MatMul_4_output_0: 3d60de28
/model.32/decoder/layers.4/cross_attn/Slice_1_output_0: 3bff7bc4
/model.32/decoder/layers.4/cross_attn/Softmax_output_0: 3be3bcbf
/model.32/decoder/layers.5/cross_attn/Reshape_13_output_0: 3bf03ed2
/model.32/decoder/layers.3/cross_attn/Transpose_output_0: 3d4e1eb3
/model.32/decoder/layers.0/cross_attn/Slice_2_output_0: 3da701de
model.32.decoder.layers.5.self_attn.out_proj.bias_output: 3abddbb7
/model.32/decoder/layers.5/self_attn/Transpose_1_output_0: 3ce85424
/model.32/decoder/layers.4/self_attn/Mul_1_output_0: 3c2f5276
/model.32/decoder/dec_bbox_head.5/layers.1/MatMul_output_0: 3d1885b1
/model.32/decoder/layers.3/cross_attn/attention_weights/MatMul_output_0: 3d79edbc
ONNXTRT_Broadcast_1712_output: 3b6f1e3c
/model.32/decoder/layers.5/self_attn/Transpose_output_0: 3d3cae77
/model.32/decoder/layers.4/cross_attn/sampling_offsets/MatMul_output_0: 3d86e54b
/model.32/decoder/query_pos_head/layers.0_3/MatMul_output_0: 3ce4e824
ONNXTRT_Broadcast_1594_output: 3aa850a1
model.32.decoder.layers.4.self_attn.out_proj.bias_output: 3b9a54a9
/model.32/decoder/layers.5/cross_attn/GridSample_1_output_0: 3ca3bf1b
/model.32/decoder/layers.3/cross_attn/Reshape_4_output_0: 3d4e1eb3
/model.32/decoder/layers.4/self_attn/Reshape_1_output_0: 3d908981
/model.32/decoder/layers.4/self_attn/Reshape_4_output_0: 3e191e6b
/model.32/decoder/layers.2/linear2/Add_output_0: 3e733c3a
/model.32/decoder/layers.4/Add_1_output_0: 3e332be7
ONNXTRT_Broadcast_1703_output: 33a917dc
/model.32/decoder/layers.4/self_attn/Softmax_output_0: 3c010204
/model.32/decoder/layers.4/cross_attn/Slice_2_output_0: 3d5e9909
(Unnamed Layer* 1727) [Constant]_output: 7c010204
ONNXTRT_Broadcast_2638_output: 33a3468d
onnx::MatMul_4255_output: 3b2af5ec
/model.32/decoder/layers.5/cross_attn/Mul_5_output_0: 3c24acad
/model.32/decoder/layers.0/cross_attn/Slice_3_output_0: 3e5d2468
ONNXTRT_Broadcast_1635_output: 3c010204
/model.32/decoder/layers.3/cross_attn/GridSample_2_output_0: 3cba9b5b
(Unnamed Layer* 1785) [ElementWise]_output: 3c003b30
/model.32/decoder/Add_5_output_0: 3db6fc4f
/model.32/decoder/layers.4/Transpose_1_output_0: 3da0ff71
model.32.dec_bbox_head.3.layers.0.bias_output: 3af14285
onnx::MatMul_4294_output: 3b2f5ebd
/model.32/Sigmoid_output_0: 3bfa7f34
ONNXTRT_Broadcast_1606_output: 3b1a74ea
/model.32/decoder/layers.5/cross_attn/Transpose_5_output_0: 3c617836
/model.32/decoder/dec_bbox_head.5/Relu_1_output_0: 3c8110c6
ONNXTRT_Broadcast_1200_output: 3c83264d
/model.32/decoder/layers.3/cross_attn/Reshape_9_output_0: 3c207c7d
onnx::MatMul_4230_output: 3b0ab56b
model.32.decoder.layers.3.cross_attn.sampling_offsets.bias_output: 3d0366ce
/model.32/decoder/layers.5/cross_attn/Mul_output_0: 3cb5b733
/model.32/decoder/layers.3/cross_attn/Reshape_14_output_0: 3d0423ef
/model.32/decoder/layers.3/self_attn/Softmax_output: 3c010204
/model.32/decoder/layers.4/self_attn/MatMul_3_output_0: 3e89647b
/model.32/decoder/layers.3/self_attn/Reshape_1_output_0: 3da6470c
ONNXTRT_Broadcast_1228_output: 3b4972e6
/model.32/decoder/layers.3/cross_attn/output_proj/MatMul_output_0: 3ceb7dcb
/model.32/decoder/layers.4/self_attn/Gemm_output: 3e144bc6
/model.32/decoder/layers.0/cross_attn/Slice_4_output_0: 3e1eb832
/model.32/decoder/layers.4/cross_attn/Reshape_1_output_0: 3daee53d
/model.32/decoder/layers.5/self_attn/Transpose_3_output_0: 3cad01fb
/model.32/decoder/query_pos_head_4/Relu_output_0: 3b6f54b5
/model.32/decoder/dec_bbox_head.3/layers.0/MatMul_output_0: 3d43d1a6
/model.32/decoder/layers.3/cross_attn/Reshape_5_output_0: 3d4e1eb3
/model.32/decoder/layers.4/cross_attn/Slice_3_output_0: 3e2cb6f3
ONNXTRT_Broadcast_1602_output: 3aaf7efe
/model.32/decoder/layers.4/Add_2_output_0: 3dc5dd19
/model.32/decoder/Sigmoid_6_output_0: 3c0101a0
/model.32/decoder/layers.4/Transpose_2_output_0: 3e191e6b
ONNXTRT_Broadcast_2606_output: 3aa62c59
/model.32/decoder/Concat_output_0: 3c0101a0
/model.32/decoder/layers.5/cross_attn/Transpose_7_output_0: 3c4980d4
onnx::MatMul_4206_output: 3ce3468d
model.32.dec_bbox_head.5.layers.2.bias_output: 33a3468d
onnx::MatMul_4374_output: 3b1ab56b
/model.32/decoder/layers.5/cross_attn/Reshape_15_output_0: 3c4980d4
ONNXTRT_Broadcast_2636_output: 3afa54a9
/model.32/Squeeze_output_0: 3c0101a0
ONNXTRT_Broadcast_2604_output: 3b1ab56b
model.32.decoder.layers.4.cross_attn.attention_weights.bias_output: 3a9d9b36
onnx::MatMul_4199_output: 3c25ebd8
onnx::MatMul_4258_output: 3bc81020
/model.32/decoder/layers.4/self_attn/MatMul_1_output_0: 3d904243
/model.32/decoder/layers.1/cross_attn/Slice_2_output_0: 3d80f55b
/model.32/decoder/layers.5/cross_attn/output_proj/MatMul_output_0: 3c8b0fe4
/model.32/decoder/layers.5/linear2/Add_output_0: 3e8a7266
/model.32/decoder/dec_bbox_head.2/layers.0/MatMul_output_0: 3d2730b1
/model.32/decoder/layers.5/cross_attn/output_proj/Add_output_0: 3c8f17f4
output0: 3c0101a0
/model.32/decoder/layers.5/act/Relu_output_0: 3d64e804
/model.32/decoder/layers.3/cross_attn/Add_output_0: 3c14e8c4
ONNXTRT_Broadcast_1725_output: 3b9a54a9
ONNXTRT_Broadcast_1122_output: 3ce3468d
onnx::MatMul_4359_output: 3b289122
ONNXTRT_Broadcast_1124_output: 3b80e1c4
ONNXTRT_Broadcast_1114_output: 3c02c58b
/model.32/decoder/layers.3/cross_attn/Reshape_11_output_0: 3e1bb31e
ONNXTRT_Broadcast_2212_output: 3c83264d
model.32.dec_score_head.5.bias_output: 3d176ede
/model.32/decoder/dec_bbox_head.3/Relu_output_0: 3d46b913
ONNXTRT_Broadcast_2634_output: 3a718306
ONNXTRT_Broadcast_1202_output: 3ab264ca
/model.32/decoder/layers.5/cross_attn/attention_weights/Add_output_0: 3d546e3a
onnx::Add_4227_output: 3a4e9d3a
/model.32/decoder/layers.3/norm2/LayerNormalization_output_0: 3dfe86d3
/model.32/decoder/layers.3/self_attn/Transpose_3_output_0: 3d60de28
/model.32/decoder/layers.3/cross_attn/Reshape_7_output_0: 3e22c7f4
model.32.dec_bbox_head.2.layers.1.bias_output: 3b1c9932
/model.32/decoder/layers.1/cross_attn/Slice_3_output_0: 3e670f77
/model.32/decoder/dec_bbox_head.3/layers.2/MatMul_output_0: 3cca11ba
/model.32/decoder/layers.3/cross_attn/Reshape_3_output_0: 3bd45185
model.32.decoder.layers.5.cross_attn.output_proj.bias_output: 3aa62c59
/model.32/decoder/layers.5/cross_attn/Reshape_14_output_0: 3cb36c27
/model.32/decoder/layers.4/cross_attn/Slice_4_output_0: 3e040622
/model.32/decoder/layers.4/cross_attn/Reshape_3_output_0: 3be3bcbf
ONNXTRT_Broadcast_2214_output: 3ab264ca
/model.32/decoder/layers.4/cross_attn/Mul_output_0: 3c7239e7
ONNXTRT_Broadcast_2632_output: 3b20c183
/model.32/decoder/layers.5/self_attn/Reshape_3_output_0: 3cad01fb
/model.32/decoder/layers.5/cross_attn/Reshape_6_output_0: 3c884347
model.32.decoder.layers.5.linear1.bias_output: 3aae7cfa
/model.32/decoder/layers.3/cross_attn/Transpose_1_output_0: 3c486875
/model.32/decoder/query_pos_head_3/Relu_output_0: 3b6f479f
/model.32/decoder/layers.4/cross_attn/Mul_1_output_0: 3bf239e7
/model.32/decoder/layers.3/cross_attn/Unsqueeze_29_output_0: 3d024b3e
/model.32/decoder/layers.5/self_attn/Softmax_output_0: 3c00c03e
ONNXTRT_Broadcast_1618_output: 3a399326
onnx::MatMul_4349_output: 3b208102
model.32.decoder.layers.3.self_attn.out_proj.bias_output: 3b262c59
/model.32/decoder/layers.1/cross_attn/Slice_4_output_0: 3e114676
/model.32/enc_output/enc_output.1/LayerNormalization_output_0: 3d21fcf4
/model.32/decoder/layers.0/cross_attn/Reshape_4_output_0: 3da701de
/model.32/decoder/layers.0/cross_attn/Reshape_7_output_0: 3e5d2468
/model.32/decoder/layers.0/cross_attn/Reshape_10_output_0: 3e1eb832
/model.32/decoder/layers.1/cross_attn/Reshape_4_output_0: 3d80f55b
/model.32/decoder/layers.1/cross_attn/Reshape_7_output_0: 3e670f77
/model.32/decoder/layers.1/cross_attn/Reshape_10_output_0: 3e114676
/model.32/Flatten_output_0: 3d21fcf4
/model.32/enc_score_head/MatMul_pre_reshape_out: 3d21fcf4
/model.32/decoder/layers.0/cross_attn/Transpose_output_0: 3da701de
/model.32/decoder/layers.0/cross_attn/Transpose_2_output_0: 3e5d2468
/model.32/decoder/layers.0/cross_attn/Transpose_4_output_0: 3e1eb832
/model.32/decoder/layers.1/cross_attn/Transpose_output_0: 3d80f55b
/model.32/decoder/layers.1/cross_attn/Transpose_2_output_0: 3e670f77
/model.32/decoder/layers.1/cross_attn/Transpose_4_output_0: 3e114676
/model.32/enc_score_head/MatMul_weight_output: 3b33c78f
/model.32/enc_score_head/MatMul_output: 3db54e81
model.32.enc_score_head.bias_output: 3d1e5cb9
ONNXTRT_Broadcast_263_output: 3d1e5cb9
/model.32/enc_score_head/MatMul_gemm_out: 3e02263e
/model.32/decoder/layers.0/cross_attn/Reshape_5_output_0: 3da701de
/model.32/decoder/layers.0/cross_attn/Reshape_8_output_0: 3e5d2468
/model.32/decoder/layers.0/cross_attn/Reshape_11_output_0: 3e1eb832
/model.32/decoder/layers.1/cross_attn/Reshape_5_output_0: 3d80f55b
/model.32/decoder/layers.1/cross_attn/Reshape_8_output_0: 3e670f77
/model.32/decoder/layers.1/cross_attn/Reshape_11_output_0: 3e114676
/model.32/enc_score_head/Add_output_0: 3e02263e
/model.32/ReduceMax_output_0: 3d83f92e
/model.32/TopK_output_0: 3d960efe
/model.32/decoder/layers.3/cross_attn/Gather_9_output_0: 3c207c7d
/model.32/Reshape_8_output_0: 3d0cec5f
/model.32/Gather_9_output_0: 3d21fcf4
/model.32/Reshape_7_output_0: 3d21fcf4
/model.32/decoder/layers.0/Transpose_1_output_0: 3d21fcf4
/model.32/enc_bbox_head/layers.0/MatMul_pre_reshape_out: 3d21fcf4
/model.32/enc_bbox_head/layers.0/MatMul_weight_output: 3b10a143
/model.32/enc_bbox_head/layers.0/MatMul_output: 3d65196b
model.32.enc_bbox_head.layers.0.bias_output: 3b04e9d4
ONNXTRT_Broadcast_278_output: 3b04e9d4
/model.32/enc_bbox_head/layers.0/MatMul_gemm_out: 3d6a7e34
/model.32/decoder/layers.0/self_attn/MatMul_2_pre_reshape_out: 3d21fcf4
/model.32/enc_bbox_head/layers.0/Add_output_0: 3d6a7e34
/model.32/decoder/layers.0/self_attn/MatMul_2_weight_output: 3b2c78f2
/model.32/decoder/layers.0/self_attn/MatMul_2_output: 3d5d02e6
onnx::Add_4047_output: 3b0952a5
ONNXTRT_Broadcast_282_output: 3b0952a5
/model.32/decoder/layers.0/self_attn/MatMul_2_gemm_out: 3d6020a1
/model.32/enc_bbox_head/Relu_output_0: 3d66acf5
/model.32/decoder/layers.0/self_attn/Reshape_2_output_0: 3d6020a1
/model.32/enc_bbox_head/layers.1/MatMul_pre_reshape_out: 3d66acf5
/model.32/decoder/layers.0/self_attn/Transpose_1_output_0: 3d6020a1
/model.32/enc_bbox_head/layers.1/MatMul_weight_output: 3b8e1c38
/model.32/enc_bbox_head/layers.1/MatMul_output: 3dae5dd6
model.32.enc_bbox_head.layers.1.bias_output: 3ae9f3e8
ONNXTRT_Broadcast_286_output: 3ae9f3e8
/model.32/enc_bbox_head/layers.1/MatMul_gemm_out: 3daec94d
/model.32/enc_bbox_head/layers.1/Add_output_0: 3daec94d
/model.32/enc_bbox_head/Relu_1_output_0: 3d3a5956
/model.32/enc_bbox_head/layers.2/MatMul_pre_reshape_out: 3d3a5956
/model.32/enc_bbox_head/layers.2/MatMul_weight_output: 3c3f9f3e
/model.32/enc_bbox_head/layers.2/MatMul_output: 3e1e2eff
model.32.enc_bbox_head.layers.2.bias_output: 3a1fdfbf
ONNXTRT_Broadcast_290_output: 3a1fdfbf
/model.32/enc_bbox_head/layers.2/MatMul_gemm_out: 3e1ecedf
/model.32/enc_bbox_head/layers.2/Add_output_0: 3e1ecedf
/model.32/Add_1_output_0: 3e13a163
/model.32/decoder/Sigmoid_output_0: 3c010204
/model.32/decoder/Clip_output_0: 3c010204
(Unnamed Layer* 2283) [ElementWise]_output: 3c01014b
/model.32/decoder/layers.0/cross_attn/Unsqueeze_9_output_0: 3c010204
/model.32/decoder/query_pos_head/layers.0/MatMul_pre_reshape_out: 3c010204
/model.32/decoder/Constant_2_output_0_output: 33a917dc
ONNXTRT_Broadcast_294_output: 33a917dc
(Unnamed Layer* 682) [Constant]_output: 7c010204
(Unnamed Layer* 683) [ElementWise]_output: 3c010204
/model.32/decoder/Clip_1_output_0: 3c010204
/model.15/Constant_5_output_0_output: 3c010204
ONNXTRT_Broadcast_297_output: 3c010204
/model.32/decoder/Sub_output_0: 3c0001fa
/model.32/decoder/layers.3/self_attn/MatMul_3_output_0: 3eea46b6
/model.32/decoder/layers.5/self_attn/Reshape_4_output_0: 3c8d0e70
model.32.decoder.layers.5.linear2.bias_output: 3afbd7af
/model.32/decoder/layers.5/cross_attn/Reshape_11_output_0: 3e04b9f8
ONNXTRT_Broadcast_1126_output: 33a917dc
model.32.dec_bbox_head.5.layers.1.bias_output: 3a718306
ONNXTRT_Broadcast_1446_output: 3c010204
model.32.decoder.layers.4.self_attn.out_proj.weight_output: 3b9060c2
ONNXTRT_Broadcast_1197_output: 33a917dc
/model.32/decoder/layers.3/cross_attn/Reshape_10_output_0: 3e1bb31e
/model.32/decoder/layers.5/norm2/LayerNormalization_output_0: 3de9ed4f
onnx::MatMul_4375_output: 3b23264d
ONNXTRT_Broadcast_1732_output: 3b2f5ebd
model.32.decoder.layers.5.cross_attn.sampling_offsets.bias_output: 3d0870e2
ONNXTRT_Broadcast_1108_output: 3ac5cb97
model.32.decoder.layers.3.linear2.bias_output: 3b1a74ea
ONNXTRT_Broadcast_1744_output: 3d010204
/model.32/decoder/Div_4_output_0: 43b37c3b
onnx::Add_4287_output: 3a399326
(Unnamed Layer* 2340) [ElementWise]_output: 3c0038dd
/model.32/decoder/layers.0/cross_attn/Slice_output_0: 3c010204
ONNXTRT_Broadcast_2222_output: 38e68d1a
/model.32/decoder/layers.3/cross_attn/GridSample_1_output_0: 3d024b3e
/model.32/decoder/layers.3/cross_attn/Div_output_0: 3c8d09d6
/model.32/decoder/layers.5/cross_attn/Transpose_1_output_0: 3c884347
/model.32/decoder/layers.5/cross_attn/Reshape_output_0: 3e1599a1
model.32.dec_bbox_head.4.layers.2.bias_output: 36bb366d
/model.32/decoder/layers.3/self_attn/Transpose_2_output_0: 3da6470c
/model.32/decoder/layers.3/cross_attn/Unsqueeze_28_output_0: 3d0423ef
/model.32/decoder/layers.5/cross_attn/Concat_14_output_0: 3cb36c27
/model.32/decoder/layers.3/Add_1_output_0: 3e10f185
/model.32/decoder/layers.2/Add_4_output_0: 3e95a1de
/model.32/decoder/layers.3/cross_attn/Gather_8_output_0: 3c486875
/model.32/decoder/layers.5/self_attn/Gemm_output: 3c8a1c0b
/model.32/decoder/layers.3/Transpose_output_0: 3d8f9418
ONNXTRT_Broadcast_1706_output: 3c83264d
onnx::MatMul_4299_output: 3b1fbf7f
/model.32/decoder/layers.4/cross_attn/attention_weights/Add_output_0: 3d5a8e07
ONNXTRT_Broadcast_2612_output: 3b23264d
/model.32/decoder/layers.5/linear1/Add_output_0: 3d829e0f
onnx::MatMul_4259_output: 3c3f1e3c
ONNXTRT_Broadcast_1632_output: 33a917dc
ONNXTRT_Broadcast_1708_output: 3ab264ca
/model.32/decoder/layers.0/cross_attn/Slice_1_output_0: 3bfeab38
/model.32/decoder/query_pos_head/layers.0/MatMul_weight_output: 3ce3468d
/model.32/decoder/query_pos_head/layers.0/MatMul_output: 3ce4f214
model.32.query_pos_head.layers.0.bias_output: 3b80e1c4
ONNXTRT_Broadcast_365_output: 3b80e1c4
/model.32/decoder/query_pos_head/layers.0/MatMul_gemm_out: 3ce2ae8d
/model.32/decoder/query_pos_head/layers.0/Add_output_0: 3ce2ae8d
ONNXTRT_Broadcast_368_output: 33a917dc
(Unnamed Layer* 747) [Constant]_output: 7c010204
(Unnamed Layer* 748) [ElementWise]_output: 3c0001fa
/model.32/decoder/Clip_2_output_0: 3c0001fa
/model.32/decoder/query_pos_head/Relu_output_0: 3b71b01a
/model.32/decoder/Div_output_0: 4444d9b3
/model.32/decoder/Log_output_0: 3db9a842
/model.32/decoder/query_pos_head/layers.1/MatMul_pre_reshape_out: 3b71b01a
/model.32/decoder/query_pos_head/layers.1/MatMul_weight_output: 3c83264d
/model.32/decoder/query_pos_head/layers.1/MatMul_output: 3cfb6246
model.32.query_pos_head.layers.1.bias_output: 3ab264ca
ONNXTRT_Broadcast_372_output: 3ab264ca
/model.32/decoder/query_pos_head/layers.1/MatMul_gemm_out: 3d034449
/model.32/decoder/query_pos_head/layers.1/Add_output_0: 3d034449
/model.32/decoder/layers.0/Add_output_0: 3d136a59
/model.32/decoder/layers.0/Transpose_output_0: 3d136a59
/model.32/decoder/layers.0/self_attn/MatMul_pre_reshape_out: 3d136a59
/model.32/decoder/layers.0/self_attn/MatMul_weight_output: 3b266cda
/model.32/decoder/layers.0/self_attn/MatMul_output: 3d781a88
onnx::Add_4043_output: 3a5972e6
ONNXTRT_Broadcast_376_output: 3a5972e6
/model.32/decoder/layers.0/self_attn/MatMul_gemm_out: 3d791196
/model.32/decoder/layers.0/self_attn/MatMul_1_weight_output: 3b26cd9b
/model.32/decoder/layers.0/self_attn/MatMul_1_output: 3db790b3
onnx::Add_4045_output: 3a0cf9f4
ONNXTRT_Broadcast_378_output: 3a0cf9f4
/model.32/decoder/layers.0/self_attn/MatMul_1_gemm_out: 3db7a904
/model.32/decoder/layers.0/self_attn/Reshape_output_0: 3d791196
/model.32/decoder/layers.0/self_attn/Reshape_1_output_0: 3db7a904
/model.32/decoder/layers.0/self_attn/Transpose_output_0: 3d791196
/model.32/decoder/layers.0/self_attn/Transpose_2_output_0: 3db7a904
/model.32/decoder/layers.0/self_attn/Constant_7_output_0_output: 3ab671d7
ONNXTRT_Broadcast_382_output: 3ab671d7
/model.32/decoder/layers.0/self_attn/Mul_1_output_0: 3c301e3f
/model.32/decoder/layers.0/self_attn/MatMul_3_output_0: 3f4cb9ee
/model.32/decoder/layers.0/self_attn/Softmax_output: 3c00a5cf
/model.32/decoder/layers.0/self_attn/Softmax_output_0: 3c00a5cf
/model.32/decoder/layers.0/self_attn/MatMul_4_output_0: 3d461346
/model.32/decoder/layers.0/self_attn/Transpose_3_output_0: 3d461346
/model.32/decoder/layers.0/self_attn/Reshape_3_output_0: 3d461346
model.32.decoder.layers.0.self_attn.out_proj.weight_output: 3b7c78f2
/model.32/decoder/layers.0/self_attn/Gemm_output: 3e921b23
model.32.decoder.layers.0.self_attn.out_proj.bias_output: 3b3f1e3c
ONNXTRT_Broadcast_386_output: 3b3f1e3c
/model.32/decoder/layers.0/self_attn/Gemm_output_0: 3e939960
/model.32/decoder/layers.0/self_attn/Reshape_4_output_0: 3e939960
/model.32/decoder/layers.0/Transpose_2_output_0: 3e939960
/model.32/decoder/layers.0/Add_1_output_0: 3e91f560
/model.32/decoder/layers.0/norm1/LayerNormalization_output_0: 3d0fa5a3
/model.32/decoder/layers.0/Add_2_output_0: 3ccb77ea
/model.32/decoder/layers.0/cross_attn/sampling_offsets/MatMul_pre_reshape_out: 3ccb77ea
/model.32/decoder/layers.0/cross_attn/sampling_offsets/MatMul_weight_output: 3b358b16
/model.32/decoder/layers.0/cross_attn/sampling_offsets/MatMul_output: 3d56a1ef
model.32.decoder.layers.0.cross_attn.sampling_offsets.bias_output: 3d044891
ONNXTRT_Broadcast_394_output: 3d044891
/model.32/decoder/layers.0/cross_attn/sampling_offsets/MatMul_gemm_out: 3d8c25f9
/model.32/decoder/layers.0/cross_attn/attention_weights/MatMul_weight_output: 3b3f7efe
/model.32/decoder/layers.0/cross_attn/attention_weights/MatMul_output: 3d961401
model.32.decoder.layers.0.cross_attn.attention_weights.bias_output: 3aa48912
ONNXTRT_Broadcast_396_output: 3aa48912
/model.32/decoder/layers.0/cross_attn/attention_weights/MatMul_gemm_out: 3d97a09a
/model.32/decoder/layers.0/cross_attn/Reshape_2_output_0: 3d97a09a
/model.32/decoder/layers.0/cross_attn/Reshape_1_output_0: 3d8c25f9
/model.32/decoder/layers.0/cross_attn/Softmax_output: 3baa5e06
/model.32/decoder/layers.0/cross_attn/Softmax_output_0: 3baa5e06
/model.32/decoder/layers.0/cross_attn/Constant_14_output_0_output: 3d010204
ONNXTRT_Broadcast_401_output: 3d010204
/model.32/decoder/layers.0/cross_attn/Div_output_0: 3c8c25f9
/model.32/decoder/layers.0/cross_attn/Reshape_3_output_0: 3baa5e06
/model.32/decoder/layers.0/cross_attn/Mul_output_0: 3c35feed
/model.32/decoder/layers.0/cross_attn/Constant_21_output_0_output: 3b810204
ONNXTRT_Broadcast_404_output: 3b810204
/model.32/decoder/layers.0/cross_attn/Mul_1_output_0: 3bb5feed
/model.32/decoder/layers.0/cross_attn/Transpose_6_output_0: 3baa5e06
/model.32/decoder/layers.0/cross_attn/Add_output_0: 3c16f954
/model.32/decoder/layers.0/cross_attn/Reshape_13_output_0: 3baa5e06
/model.32/decoder/layers.0/cross_attn/Constant_38_output_0_output: 3c810204
ONNXTRT_Broadcast_407_output: 3c810204
/model.32/decoder/layers.0/cross_attn/Mul_5_output_0: 3c96f954
ONNXTRT_Broadcast_409_output: 3c010204
/model.32/decoder/layers.0/cross_attn/Sub_output_0: 3c3cc088
/model.32/decoder/Sigmoid_4_output_0: 3c01014b
ONNXTRT_Broadcast_2227_output: 3ab671d7
/model.32/decoder/layers.0/cross_attn/Gather_9_output_0: 3c2cf0a3
/model.32/decoder/layers.3/cross_attn/Reshape_13_output_0: 3bd45185
/model.32/decoder/layers.3/cross_attn/Softmax_output_0: 3bd45185
/model.32/decoder/layers.0/cross_attn/Gather_10_output_0: 3c3cc088
/model.32/decoder/layers.3/linear1/Add_output_0: 3d850e57
/model.32/decoder/layers.5/self_attn/Reshape_1_output_0: 3d24fb48
/model.32/decoder/layers.0/cross_attn/Gather_11_output_0: 3c124fa1
/model.32/decoder/layers.0/cross_attn/Transpose_1_output_0: 3c2cf0a3
/model.32/decoder/layers.0/cross_attn/Transpose_3_output_0: 3c3cc088
/model.32/decoder/layers.0/cross_attn/Transpose_5_output_0: 3c124fa1
/model.32/decoder/layers.0/cross_attn/Reshape_6_output_0: 3c2cf0a3
/model.32/decoder/layers.0/cross_attn/Reshape_9_output_0: 3c3cc088
/model.32/decoder/layers.0/cross_attn/Reshape_12_output_0: 3c124fa1
/model.32/decoder/layers.0/cross_attn/GridSample_output_0: 3cdb6ebf
/model.32/decoder/layers.0/cross_attn/GridSample_1_output_0: 3d04aae3
/model.32/decoder/layers.0/cross_attn/GridSample_2_output_0: 3cd69b9b
/model.32/decoder/layers.5/self_attn/Softmax_output: 3c00c03e
/model.32/decoder/layers.0/cross_attn/Unsqueeze_28_output_0: 3cdb6ebf
/model.32/decoder/layers.0/cross_attn/Unsqueeze_29_output_0: 3d04aae3
/model.32/decoder/layers.0/cross_attn/Unsqueeze_30_output_0: 3cd69b9b
/model.32/decoder/layers.0/cross_attn/Concat_14_output_0: 3d04aae3
/model.32/decoder/layers.0/cross_attn/Reshape_14_output_0: 3d04aae3
/model.32/decoder/layers.0/cross_attn/Mul_8_output_0: 3c0e1bd3
/model.32/decoder/layers.0/cross_attn/ReduceSum_output_0: 3c81a88b
/model.32/decoder/layers.0/cross_attn/Reshape_15_output_0: 3c81a88b
/model.32/decoder/layers.0/cross_attn/Transpose_7_output_0: 3c81a88b
/model.32/decoder/layers.0/cross_attn/output_proj/MatMul_pre_reshape_out: 3c81a88b
/model.32/decoder/layers.0/cross_attn/output_proj/MatMul_weight_output: 3b3a1428
/model.32/decoder/layers.0/cross_attn/output_proj/MatMul_output: 3d037ec8
model.32.decoder.layers.0.cross_attn.output_proj.bias_output: 3af22449
ONNXTRT_Broadcast_420_output: 3af22449
/model.32/decoder/layers.0/cross_attn/output_proj/MatMul_gemm_out: 3d062595
/model.32/decoder/layers.0/cross_attn/output_proj/Add_output_0: 3d062595
/model.32/decoder/layers.0/Add_3_output_0: 3d7f2fb1
/model.32/decoder/layers.0/norm2/LayerNormalization_output_0: 3d98a0fa
/model.32/decoder/layers.0/linear1/MatMul_pre_reshape_out: 3d98a0fa
/model.32/decoder/layers.0/linear1/MatMul_weight_output: 3ba1a347
/model.32/decoder/layers.0/linear1/MatMul_output: 3e28607b
model.32.decoder.layers.0.linear1.bias_output: 3b1c1830
ONNXTRT_Broadcast_428_output: 3b1c1830
/model.32/decoder/layers.0/linear1/MatMul_gemm_out: 3e2ad0dc
/model.32/decoder/layers.0/linear1/Add_output_0: 3e2ad0dc
/model.32/decoder/layers.0/act/Relu_output_0: 3d72c04d
/model.32/decoder/layers.0/linear2/MatMul_pre_reshape_out: 3d72c04d
/model.32/decoder/layers.0/linear2/MatMul_weight_output: 3be468d2
/model.32/decoder/layers.0/linear2/MatMul_output: 3e535e87
model.32.decoder.layers.0.linear2.bias_output: 3b19d3a7
ONNXTRT_Broadcast_432_output: 3b19d3a7
/model.32/decoder/layers.0/linear2/MatMul_gemm_out: 3e5524d4
/model.32/decoder/layers.0/linear2/Add_output_0: 3e5524d4
/model.32/decoder/layers.0/Add_4_output_0: 3e67a093
/model.32/decoder/layers.0/norm3/LayerNormalization_output_0: 3d7a19a1
/model.32/decoder/layers.1/Transpose_1_output_0: 3d7a19a1
/model.32/decoder/dec_bbox_head.0/layers.0/MatMul_pre_reshape_out: 3d7a19a1
/model.32/decoder/dec_bbox_head.0/layers.0/MatMul_weight_output: 3b39d3a7
/model.32/decoder/dec_bbox_head.0/layers.0/MatMul_output: 3d33462e
model.32.dec_bbox_head.0.layers.0.bias_output: 3ae52a55
ONNXTRT_Broadcast_440_output: 3ae52a55
/model.32/decoder/dec_bbox_head.0/layers.0/MatMul_gemm_out: 3d35abfa
/model.32/decoder/layers.1/self_attn/MatMul_2_pre_reshape_out: 3d7a19a1
/model.32/decoder/dec_bbox_head.0/layers.0/Add_output_0: 3d35abfa
/model.32/decoder/layers.1/self_attn/MatMul_2_weight_output: 3b402041
/model.32/decoder/layers.1/self_attn/MatMul_2_output: 3d4becd9
onnx::Add_4107_output: 3a9a3469
ONNXTRT_Broadcast_444_output: 3a9a3469
/model.32/decoder/layers.1/self_attn/MatMul_2_gemm_out: 3d4de60b
/model.32/decoder/dec_bbox_head.0/Relu_output_0: 3ced2654
/model.32/decoder/layers.1/self_attn/Reshape_2_output_0: 3d4de60b
/model.32/decoder/dec_bbox_head.0/layers.1/MatMul_pre_reshape_out: 3ced2654
/model.32/decoder/layers.1/self_attn/Transpose_1_output_0: 3d4de60b
/model.32/decoder/dec_bbox_head.0/layers.1/MatMul_weight_output: 3bf5ab57
/model.32/decoder/dec_bbox_head.0/layers.1/MatMul_output: 3da59437
model.32.dec_bbox_head.0.layers.1.bias_output: 3b104081
ONNXTRT_Broadcast_448_output: 3b104081
/model.32/decoder/dec_bbox_head.0/layers.1/MatMul_gemm_out: 3da812b4
/model.32/decoder/dec_bbox_head.0/layers.1/Add_output_0: 3da812b4
/model.32/decoder/dec_bbox_head.0/Relu_1_output_0: 3ca9cccf
/model.32/decoder/dec_bbox_head.0/layers.2/MatMul_pre_reshape_out: 3ca9cccf
/model.32/decoder/dec_bbox_head.0/layers.2/MatMul_weight_output: 3c10e1c4
/model.32/decoder/dec_bbox_head.0/layers.2/MatMul_output: 3c9c3dc2
model.32.dec_bbox_head.0.layers.2.bias_output: 3929f3e8
ONNXTRT_Broadcast_452_output: 3929f3e8
/model.32/decoder/dec_bbox_head.0/layers.2/MatMul_gemm_out: 3c9ae9da
/model.32/decoder/dec_bbox_head.0/layers.2/Add_output_0: 3c9ae9da
/model.32/decoder/Add_output_0: 3db4dbdb
/model.32/decoder/Sigmoid_1_output_0: 3c010191
/model.32/decoder/Clip_3_output_0: 3c010191
/model.32/decoder/layers.1/cross_attn/Unsqueeze_9_output_0: 3c010191
/model.32/decoder/query_pos_head/layers.0_1/MatMul_pre_reshape_out: 3c010191
ONNXTRT_Broadcast_456_output: 33a917dc
(Unnamed Layer* 931) [Constant]_output: 7c010204
(Unnamed Layer* 932) [ElementWise]_output: 3c010191
/model.32/decoder/Clip_4_output_0: 3c010191
ONNXTRT_Broadcast_459_output: 3c010204
/model.32/decoder/Sub_1_output_0: 3c00294c
model.32.dec_bbox_head.2.layers.2.bias_output: 385fbf7f
/model.32/decoder/layers.3/self_attn/Add_1_output_0: 3da6470c
ONNXTRT_Broadcast_2244_output: 3a052a55
/model.32/decoder/layers.3/cross_attn/Sub_output_0: 3c486875
/model.32/decoder/query_pos_head/layers.0_5/Add_output_0: 3ce2226d
ONNXTRT_Broadcast_1210_output: 39aeddbb
ONNXTRT_Broadcast_1622_output: 3a9972e6
/model.32/decoder/layers.5/cross_attn/Slice_output_0: 3c0101a0
ONNXTRT_Broadcast_2618_output: 3afbd7af
/model.32/decoder/layers.3/self_attn/Reshape_output_0: 3da72276
ONNXTRT_Broadcast_1624_output: 3c3f1e3c
/model.32/decoder/layers.3/cross_attn/Transpose_5_output_0: 3c1827dc
/model.32/decoder/layers.5/cross_attn/Softmax_output: 3bf03ed2
/model.32/decoder/layers.5/cross_attn/Reshape_3_output_0: 3bf03ed2
/model.32/decoder/query_pos_head/layers.0_3/Add_output_0: 3ce2a49d
/model.32/decoder/layers.4/self_attn/Reshape_output_0: 3d77f163
/model.32/decoder/Sub_4_output_0: 3c0038dd
/model.32/decoder/query_pos_head/layers.1_4/Add_output_0: 3d016707
/model.32/decoder/query_pos_head/layers.1_5/MatMul_output_0: 3cf7d367
/model.32/decoder/layers.5/self_attn/MatMul_3_output_0: 3dd989f0
onnx::MatMul_4267_output: 3c83264d
/model.32/decoder/layers.1/cross_attn/Slice_output_0: 3c010191
/model.32/decoder/Log_4_output_0: 3dacfd86
/model.32/decoder/layers.5/self_attn/Reshape_2_output_0: 3ce85424
onnx::MatMul_4207_output: 3c83264d
(Unnamed Layer* 1784) [Constant]_output: 7c010204
/model.32/decoder/layers.3/self_attn/Gemm_output_0: 3dea45f2
ONNXTRT_Broadcast_1628_output: 3ce3468d
ONNXTRT_Broadcast_1232_output: 3ab40810
ONNXTRT_Broadcast_1129_output: 3c010204
ONNXTRT_Broadcast_1630_output: 3b80e1c4
ONNXTRT_Broadcast_1100_output: 3b5870e2
/model.32/decoder/Log_3_output_0: 3db0b887
/model.32/decoder/layers.3/self_attn/Add_2_output_0: 3d98a1a3
ONNXTRT_Broadcast_2250_output: 3d010204
/model.32/decoder/dec_bbox_head.2/Relu_1_output_0: 3ca2d434
model.32.decoder.layers.3.self_attn.out_proj.weight_output: 3b256ad6
/model.32/decoder/layers.5/cross_attn/sampling_offsets/Add_output_0: 3e43bb3b
onnx::MatMul_4288_output: 3b4fbf7f
/model.32/decoder/layers.3/cross_attn/Reshape_6_output_0: 3c486875
/model.32/decoder/layers.4/self_attn/Reshape_2_output_0: 3d135dfb
/model.32/decoder/layers.5/Add_output_0: 3d8d6d08
/model.32/decoder/layers.4/self_attn/Transpose_output_0: 3d77f163
/model.32/decoder/layers.3/self_attn/Reshape_2_output_0: 3d98a1a3
/model.32/decoder/layers.4/self_attn/Transpose_2_output_0: 3d908981
/model.32/decoder/layers.1/cross_attn/Slice_1_output_0: 3bfe95a3
/model.32/decoder/query_pos_head/layers.0_1/MatMul_weight_output: 3ce3468d
/model.32/decoder/query_pos_head/layers.0_1/MatMul_output: 3ce4f0d5
ONNXTRT_Broadcast_527_output: 3b80e1c4
/model.32/decoder/query_pos_head/layers.0_1/MatMul_gemm_out: 3ce2ad4e
/model.32/decoder/query_pos_head/layers.0_1/Add_output_0: 3ce2ad4e
ONNXTRT_Broadcast_530_output: 33a917dc
(Unnamed Layer* 992) [Constant]_output: 7c010204
(Unnamed Layer* 993) [ElementWise]_output: 3c00294c
/model.32/decoder/Clip_5_output_0: 3c00294c
/model.32/decoder/query_pos_head_1/Relu_output_0: 3b70dd1c
/model.32/decoder/Div_1_output_0: 4410d957
/model.32/decoder/Log_1_output_0: 3db4b5e8
/model.32/decoder/query_pos_head/layers.1_1/MatMul_pre_reshape_out: 3b70dd1c
/model.32/decoder/query_pos_head/layers.1_1/MatMul_weight_output: 3c83264d
/model.32/decoder/query_pos_head/layers.1_1/MatMul_output: 3cfa80ed
ONNXTRT_Broadcast_534_output: 3ab264ca
/model.32/decoder/query_pos_head/layers.1_1/MatMul_gemm_out: 3d02d39d
/model.32/decoder/query_pos_head/layers.1_1/Add_output_0: 3d02d39d
/model.32/decoder/layers.1/Add_output_0: 3d479b1c
/model.32/decoder/layers.1/Transpose_output_0: 3d479b1c
/model.32/decoder/layers.1/self_attn/MatMul_pre_reshape_out: 3d479b1c
/model.32/decoder/layers.1/self_attn/MatMul_weight_output: 3b589122
/model.32/decoder/layers.1/self_attn/MatMul_output: 3d99c048
onnx::Add_4103_output: 3a972e5d
ONNXTRT_Broadcast_538_output: 3a972e5d
/model.32/decoder/layers.1/self_attn/MatMul_gemm_out: 3d9abd42
/model.32/decoder/layers.1/self_attn/MatMul_1_weight_output: 3b5f7efe
/model.32/decoder/layers.1/self_attn/MatMul_1_output: 3da5c2ea
onnx::Add_4105_output: 3a1e9d3a
ONNXTRT_Broadcast_540_output: 3a1e9d3a
/model.32/decoder/layers.1/self_attn/MatMul_1_gemm_out: 3da53167
/model.32/decoder/layers.1/self_attn/Reshape_output_0: 3d9abd42
/model.32/decoder/layers.1/self_attn/Reshape_1_output_0: 3da53167
/model.32/decoder/layers.1/self_attn/Transpose_output_0: 3d9abd42
/model.32/decoder/layers.1/self_attn/Transpose_2_output_0: 3da53167
ONNXTRT_Broadcast_544_output: 3ab671d7
/model.32/decoder/layers.1/self_attn/Mul_1_output_0: 3c5ad59a
/model.32/decoder/layers.1/self_attn/MatMul_3_output_0: 3ed77433
/model.32/decoder/layers.1/self_attn/Softmax_output: 3c010204
/model.32/decoder/layers.1/self_attn/Softmax_output_0: 3c010204
/model.32/decoder/layers.1/self_attn/MatMul_4_output_0: 3d4de5ff
/model.32/decoder/layers.1/self_attn/Transpose_3_output_0: 3d4de5ff
/model.32/decoder/layers.1/self_attn/Reshape_3_output_0: 3d4de5ff
model.32.decoder.layers.1.self_attn.out_proj.weight_output: 3b64c993
/model.32/decoder/layers.1/self_attn/Gemm_output: 3e06809d
model.32.decoder.layers.1.self_attn.out_proj.bias_output: 3b570e1c
ONNXTRT_Broadcast_548_output: 3b570e1c
/model.32/decoder/layers.1/self_attn/Gemm_output_0: 3e09dcd6
/model.32/decoder/layers.1/self_attn/Reshape_4_output_0: 3e09dcd6
/model.32/decoder/layers.1/Transpose_2_output_0: 3e09dcd6
/model.32/decoder/layers.1/Add_1_output_0: 3e12336c
/model.32/decoder/layers.1/norm1/LayerNormalization_output_0: 3d5eb5f5
/model.32/decoder/layers.1/Add_2_output_0: 3d267c7b
/model.32/decoder/layers.1/cross_attn/sampling_offsets/MatMul_pre_reshape_out: 3d267c7b
/model.32/decoder/layers.1/cross_attn/sampling_offsets/MatMul_weight_output: 3b542851
/model.32/decoder/layers.1/cross_attn/sampling_offsets/MatMul_output: 3d52c4a5
model.32.decoder.layers.1.cross_attn.sampling_offsets.bias_output: 3d03870e
ONNXTRT_Broadcast_556_output: 3d03870e
/model.32/decoder/layers.1/cross_attn/sampling_offsets/MatMul_gemm_out: 3dab15b9
/model.32/decoder/layers.1/cross_attn/attention_weights/MatMul_weight_output: 3b46cd9b
/model.32/decoder/layers.1/cross_attn/attention_weights/MatMul_output: 3d2e1b6d
model.32.decoder.layers.1.cross_attn.attention_weights.bias_output: 3ab468d2
ONNXTRT_Broadcast_558_output: 3ab468d2
/model.32/decoder/layers.1/cross_attn/attention_weights/MatMul_gemm_out: 3d2e73bd
/model.32/decoder/layers.1/cross_attn/Reshape_2_output_0: 3d2e73bd
/model.32/decoder/layers.1/cross_attn/Reshape_1_output_0: 3dab15b9
/model.32/decoder/layers.1/cross_attn/Softmax_output: 3bd86093
/model.32/decoder/layers.1/cross_attn/Softmax_output_0: 3bd86093
ONNXTRT_Broadcast_563_output: 3d010204
/model.32/decoder/layers.1/cross_attn/Div_output_0: 3cab15b9
/model.32/decoder/layers.1/cross_attn/Reshape_3_output_0: 3bd86093
/model.32/decoder/layers.1/cross_attn/Mul_output_0: 3c15a423
ONNXTRT_Broadcast_566_output: 3b810204
/model.32/decoder/layers.1/cross_attn/Mul_1_output_0: 3b95a423
/model.32/decoder/layers.1/cross_attn/Transpose_6_output_0: 3bd86093
/model.32/decoder/layers.1/cross_attn/Add_output_0: 3c12e05f
/model.32/decoder/layers.1/cross_attn/Reshape_13_output_0: 3bd86093
ONNXTRT_Broadcast_569_output: 3c810204
/model.32/decoder/layers.1/cross_attn/Mul_2_output_0: 3c92e05f
ONNXTRT_Broadcast_571_output: 3c010204
/model.32/decoder/layers.1/cross_attn/Sub_output_0: 3c24beb9
/model.32/decoder/layers.5/Transpose_2_output_0: 3c8d0e70
/model.32/decoder/layers.1/cross_attn/Gather_8_output_0: 3c24beb9
/model.32/decoder/dec_score_head.5/MatMul_output_0: 3d82de4e
/model.32/decoder/layers.1/cross_attn/Gather_9_output_0: 3c12a87d
/model.32/decoder/layers.5/cross_attn/Slice_4_output_0: 3e04b9f8
/model.32/decoder/layers.1/cross_attn/Gather_10_output_0: 3c13569a
/model.32/decoder/layers.1/cross_attn/Transpose_1_output_0: 3c24beb9
/model.32/decoder/layers.1/cross_attn/Transpose_3_output_0: 3c12a87d
/model.32/decoder/layers.1/cross_attn/Transpose_5_output_0: 3c13569a
/model.32/decoder/layers.1/cross_attn/Reshape_6_output_0: 3c24beb9
/model.32/decoder/layers.1/cross_attn/Reshape_9_output_0: 3c12a87d
/model.32/decoder/layers.1/cross_attn/Reshape_12_output_0: 3c13569a
/model.32/decoder/layers.1/cross_attn/GridSample_output_0: 3cead209
/model.32/decoder/layers.1/cross_attn/GridSample_1_output_0: 3cde2f99
/model.32/decoder/layers.1/cross_attn/GridSample_2_output_0: 3cb38714
/model.32/decoder/layers.1/cross_attn/Unsqueeze_28_output_0: 3cead209
/model.32/decoder/layers.1/cross_attn/Unsqueeze_29_output_0: 3cde2f99
/model.32/decoder/layers.1/cross_attn/Unsqueeze_30_output_0: 3cb38714
/model.32/decoder/layers.1/cross_attn/Concat_14_output_0: 3cead209
/model.32/decoder/layers.1/cross_attn/Reshape_14_output_0: 3cead209
/model.32/decoder/layers.1/cross_attn/Mul_5_output_0: 3c086105
/model.32/decoder/layers.1/cross_attn/ReduceSum_output_0: 3c7a10d3
/model.32/decoder/layers.1/cross_attn/Reshape_15_output_0: 3c7a10d3
/model.32/decoder/layers.1/cross_attn/Transpose_7_output_0: 3c7a10d3
/model.32/decoder/layers.1/cross_attn/output_proj/MatMul_pre_reshape_out: 3c7a10d3
/model.32/decoder/layers.1/cross_attn/output_proj/MatMul_weight_output: 3b450a14
/model.32/decoder/layers.1/cross_attn/output_proj/MatMul_output: 3cda5355
model.32.decoder.layers.1.cross_attn.output_proj.bias_output: 3ab3870e
ONNXTRT_Broadcast_582_output: 3ab3870e
/model.32/decoder/layers.1/cross_attn/output_proj/MatMul_gemm_out: 3cdbb293
/model.32/decoder/layers.1/cross_attn/output_proj/Add_output_0: 3cdbb293
/model.32/decoder/layers.1/Add_3_output_0: 3d744a52
/model.32/decoder/layers.1/norm2/LayerNormalization_output_0: 3d9281f9
/model.32/decoder/layers.1/linear1/MatMul_pre_reshape_out: 3d9281f9
/model.32/decoder/layers.1/linear1/MatMul_weight_output: 3b5a74ea
/model.32/decoder/layers.1/linear1/MatMul_output: 3ddcf7e2
model.32.decoder.layers.1.linear1.bias_output: 3b3162c6
ONNXTRT_Broadcast_590_output: 3b3162c6
/model.32/decoder/layers.1/linear1/MatMul_gemm_out: 3ddf0d8d
/model.32/decoder/layers.1/linear1/Add_output_0: 3ddf0d8d
/model.32/decoder/layers.1/act/Relu_output_0: 3d8a1033
/model.32/decoder/layers.1/linear2/MatMul_pre_reshape_out: 3d8a1033
/model.32/decoder/layers.1/linear2/MatMul_weight_output: 3b7366ce
/model.32/decoder/layers.1/linear2/MatMul_output: 3e4f26ad
model.32.decoder.layers.1.linear2.bias_output: 3b3dbb77
ONNXTRT_Broadcast_594_output: 3b3dbb77
/model.32/decoder/layers.1/linear2/MatMul_gemm_out: 3e512b36
/model.32/decoder/layers.1/linear2/Add_output_0: 3e512b36
/model.32/decoder/layers.1/Add_4_output_0: 3e80e982
/model.32/decoder/layers.1/norm3/LayerNormalization_output_0: 3d7f68f0
/model.32/decoder/layers.2/Transpose_1_output_0: 3d7f68f0
/model.32/decoder/dec_bbox_head.1/layers.0/MatMul_pre_reshape_out: 3d7f68f0
/model.32/decoder/dec_bbox_head.1/layers.0/MatMul_weight_output: 3b1bf7f0
/model.32/decoder/dec_bbox_head.1/layers.0/MatMul_output: 3d31f003
model.32.dec_bbox_head.1.layers.0.bias_output: 3afb76ee
ONNXTRT_Broadcast_602_output: 3afb76ee
/model.32/decoder/dec_bbox_head.1/layers.0/MatMul_gemm_out: 3d33dc1b
/model.32/decoder/layers.2/self_attn/MatMul_2_pre_reshape_out: 3d7f68f0
/model.32/decoder/dec_bbox_head.1/layers.0/Add_output_0: 3d33dc1b
/model.32/decoder/layers.2/self_attn/MatMul_2_weight_output: 3b09b367
/model.32/decoder/layers.2/self_attn/MatMul_2_output: 3d67ec56
onnx::Add_4167_output: 3a720408
ONNXTRT_Broadcast_606_output: 3a720408
/model.32/decoder/layers.2/self_attn/MatMul_2_gemm_out: 3d67baf3
/model.32/decoder/dec_bbox_head.1/Relu_output_0: 3d101e54
/model.32/decoder/layers.2/self_attn/Add_2_output_0: 3d67baf3
/model.32/decoder/layers.2/self_attn/Reshape_2_output_0: 3d67baf3
/model.32/decoder/dec_bbox_head.1/layers.1/MatMul_pre_reshape_out: 3d101e54
/model.32/decoder/layers.2/self_attn/Transpose_1_output_0: 3d67baf3
/model.32/decoder/dec_bbox_head.1/layers.1/MatMul_weight_output: 3be20408
/model.32/decoder/dec_bbox_head.1/layers.1/MatMul_output: 3d99cdb5
model.32.dec_bbox_head.1.layers.1.bias_output: 3ae8b163
ONNXTRT_Broadcast_611_output: 3ae8b163
/model.32/decoder/dec_bbox_head.1/layers.1/MatMul_gemm_out: 3d9d707b
/model.32/decoder/dec_bbox_head.1/layers.1/Add_output_0: 3d9d707b
/model.32/decoder/dec_bbox_head.1/Relu_1_output_0: 3cac7004
/model.32/decoder/dec_bbox_head.1/layers.2/MatMul_pre_reshape_out: 3cac7004
/model.32/decoder/dec_bbox_head.1/layers.2/MatMul_weight_output: 3c454a95
/model.32/decoder/dec_bbox_head.1/layers.2/MatMul_output: 3cd564c8
model.32.dec_bbox_head.1.layers.2.bias_output: 38ab76ee
ONNXTRT_Broadcast_615_output: 38ab76ee
/model.32/decoder/dec_bbox_head.1/layers.2/MatMul_gemm_out: 3cd54751
/model.32/decoder/dec_bbox_head.1/layers.2/Add_output_0: 3cd54751
/model.32/decoder/Add_1_output_0: 3dd7b1f0
/model.32/decoder/Sigmoid_2_output_0: 3c0101f7
/model.32/decoder/Clip_6_output_0: 3c0101f7
/model.32/decoder/layers.2/cross_attn/Unsqueeze_9_output_0: 3c0101f7
/model.32/decoder/query_pos_head/layers.0_2/MatMul_pre_reshape_out: 3c0101f7
ONNXTRT_Broadcast_619_output: 33a917dc
(Unnamed Layer* 1168) [Constant]_output: 7c010204
(Unnamed Layer* 1169) [ElementWise]_output: 3c0101f7
/model.32/decoder/Clip_7_output_0: 3c0101f7
ONNXTRT_Broadcast_622_output: 3c010204
/model.32/decoder/Sub_2_output_0: 3c001d5b
ONNXTRT_Broadcast_1118_output: 3c25ebd8
(Unnamed Layer* 2282) [Constant]_output: 7c010204
/model.32/decoder/layers.3/cross_attn/ReduceSum_output_0: 3c8f6d2b
/model.32/decoder/layers.5/Add_2_output_0: 3dd4ca59
ONNXTRT_Broadcast_1626_output: 36e0a143
/model.32/decoder/query_pos_head/layers.1_3/MatMul_output_0: 3cf7b8b4
/model.32/decoder/Clip_12_output_0: 3c01014b
/model.32/decoder/dec_bbox_head.2/layers.0/Add_output_0: 3d2d269d
/model.32/decoder/layers.3/self_attn/MatMul_2_output_0: 3d98be30
onnx::MatMul_4254_output: 3b23c78f
/model.32/decoder/layers.4/cross_attn/Reshape_output_0: 3e2cb6f3
/model.32/decoder/dec_bbox_head.3/layers.1/MatMul_output_0: 3d80abff
ONNXTRT_Broadcast_1226_output: 3b1e3c79
/model.32/decoder/dec_bbox_head.2/layers.1/MatMul_output_0: 3dd26367
/model.32/decoder/layers.4/cross_attn/Slice_output_0: 3c01014b
onnx::Add_4225_output: 39aeddbb
/model.32/decoder/layers.3/Transpose_1_output_0: 3d9ecbf4
/model.32/decoder/Concat_1_output_0: 3d960efe
/model.32/decoder/layers.4/cross_attn/attention_weights/MatMul_output_0: 3d5a2e07
/model.32/decoder/layers.5/cross_attn/Reshape_9_output_0: 3cb6b2d4
/model.32/decoder/layers.3/Add_2_output_0: 3dbc9a88
onnx::MatMul_4379_output: 3afa54a9
/model.32/decoder/layers.2/cross_attn/Slice_output_0: 3c0101f7
/model.32/decoder/layers.3/cross_attn/Reshape_output_0: 3e22c7f4
/model.32/decoder/layers.4/cross_attn/Reshape_7_output_0: 3e2cb6f3
/model.32/decoder/query_pos_head/layers.1_5/Add_output_0: 3d017cda
/model.32/decoder/layers.4/cross_attn/Add_output_0: 3c2c9d2d
/model.32/decoder/layers.4/cross_attn/Transpose_6_output_0: 3be3bcbf
ONNXTRT_Broadcast_2614_output: 3aae7cfa
/model.32/decoder/layers.3/cross_attn/Concat_14_output_0: 3d0423ef
/model.32/decoder/dec_bbox_head.2/layers.2/Add_output_0: 3c81be7a
/model.32/decoder/layers.4/cross_attn/Reshape_14_output_0: 3d0e3d8d
ONNXTRT_Broadcast_1716_output: 395dfbf8
/model.32/decoder/layers.3/linear2/MatMul_output_0: 3ea624ad
ONNXTRT_Broadcast_1947_output: 3c810204
/model.32/decoder/layers.5/self_attn/Add_1_output_0: 3d24fb48
model.32.dec_bbox_head.4.layers.0.bias_output: 3ad0a143
/model.32/decoder/layers.4/cross_attn/Reshape_10_output_0: 3e040622
ONNXTRT_Broadcast_1952_output: 3c010204
/model.32/decoder/layers.4/cross_attn/Sub_output_0: 3c7207f5
/model.32/decoder/layers.4/cross_attn/Transpose_output_0: 3d5e9909
/model.32/decoder/layers.4/cross_attn/Reshape_4_output_0: 3d5e9909
/model.32/decoder/layers.4/cross_attn/Transpose_2_output_0: 3e2cb6f3
/model.32/decoder/layers.4/cross_attn/Transpose_4_output_0: 3e040622
ONNXTRT_Broadcast_1441_output: 3c810204
/model.32/decoder/layers.4/cross_attn/Mul_2_output_0: 3cac9d2d
onnx::MatMul_4257_output: 3b20c183
/model.32/decoder/layers.2/cross_attn/Slice_1_output_0: 3bff75cf
/model.32/decoder/query_pos_head/layers.0_2/MatMul_weight_output: 3ce3468d
/model.32/decoder/query_pos_head/layers.0_2/MatMul_output: 3ce4ed06
ONNXTRT_Broadcast_690_output: 3b80e1c4
/model.32/decoder/query_pos_head/layers.0_2/MatMul_gemm_out: 3ce2a97f
/model.32/decoder/query_pos_head/layers.0_2/Add_output_0: 3ce2a97f
ONNXTRT_Broadcast_693_output: 33a917dc
(Unnamed Layer* 1229) [Constant]_output: 7c010204
(Unnamed Layer* 1230) [ElementWise]_output: 3c001d5b
/model.32/decoder/Clip_8_output_0: 3c001d5b
/model.32/decoder/query_pos_head_2/Relu_output_0: 3b700c3a
/model.32/decoder/Div_2_output_0: 4444d99f
/model.32/decoder/Log_2_output_0: 3db9a841
/model.32/decoder/query_pos_head/layers.1_2/MatMul_pre_reshape_out: 3b700c3a
/model.32/decoder/query_pos_head/layers.1_2/MatMul_weight_output: 3c83264d
/model.32/decoder/query_pos_head/layers.1_2/MatMul_output: 3cf75b20
ONNXTRT_Broadcast_697_output: 3ab264ca
/model.32/decoder/query_pos_head/layers.1_2/MatMul_gemm_out: 3d0140b6
/model.32/decoder/query_pos_head/layers.1_2/Add_output_0: 3d0140b6
/model.32/decoder/layers.2/Add_output_0: 3d631412
/model.32/decoder/layers.2/Transpose_output_0: 3d631412
/model.32/decoder/layers.2/self_attn/MatMul_pre_reshape_out: 3d631412
/model.32/decoder/layers.2/self_attn/MatMul_weight_output: 3b54a953
/model.32/decoder/layers.2/self_attn/MatMul_output: 3d9e938b
onnx::Add_4163_output: 3a944891
ONNXTRT_Broadcast_701_output: 3a944891
/model.32/decoder/layers.2/self_attn/MatMul_gemm_out: 3d9e8d25
/model.32/decoder/layers.2/self_attn/MatMul_1_weight_output: 3b578f1e
/model.32/decoder/layers.2/self_attn/MatMul_1_output: 3dc5fb81
onnx::Add_4165_output: 39c3264d
ONNXTRT_Broadcast_703_output: 39c3264d
/model.32/decoder/layers.2/self_attn/MatMul_1_gemm_out: 3dc5fc7c
/model.32/decoder/layers.2/self_attn/Add_output_0: 3d9e8d25
/model.32/decoder/layers.2/self_attn/Add_1_output_0: 3dc5fc7c
/model.32/decoder/layers.2/self_attn/Reshape_output_0: 3d9e8d25
/model.32/decoder/layers.2/self_attn/Reshape_1_output_0: 3dc5fc7c
/model.32/decoder/layers.2/self_attn/Transpose_output_0: 3d9e8d25
/model.32/decoder/layers.2/self_attn/Transpose_2_output_0: 3dc5fc7c
ONNXTRT_Broadcast_709_output: 3ab671d7
/model.32/decoder/layers.2/self_attn/Mul_1_output_0: 3c6039b8
/model.32/decoder/layers.2/self_attn/MatMul_3_output_0: 3efe3e51
/model.32/decoder/layers.2/self_attn/Softmax_output: 3c010204
/model.32/decoder/layers.2/self_attn/Softmax_output_0: 3c010204
/model.32/decoder/layers.2/self_attn/MatMul_4_output_0: 3d4edb25
/model.32/decoder/layers.2/self_attn/Transpose_3_output_0: 3d4edb25
/model.32/decoder/layers.2/self_attn/Reshape_3_output_0: 3d4edb25
model.32.decoder.layers.2.self_attn.out_proj.weight_output: 3b4c1830
/model.32/decoder/layers.2/self_attn/Gemm_output: 3e065c82
model.32.decoder.layers.2.self_attn.out_proj.bias_output: 3b5e3c79
ONNXTRT_Broadcast_713_output: 3b5e3c79
/model.32/decoder/layers.2/self_attn/Gemm_output_0: 3e09d574
/model.32/decoder/layers.2/self_attn/Reshape_4_output_0: 3e09d574
/model.32/decoder/layers.2/Transpose_2_output_0: 3e09d574
/model.32/decoder/layers.2/Add_1_output_0: 3e2689de
/model.32/decoder/layers.2/norm1/LayerNormalization_output_0: 3d783f9f
/model.32/decoder/layers.2/Add_2_output_0: 3d583da8
/model.32/decoder/Sigmoid_3_output_0: 3c010171
/model.32/decoder/layers.4/cross_attn/Gather_9_output_0: 3c7207f5
onnx::MatMul_4174_output: 3bb1c387
ONNXTRT_Broadcast_720_output: 3bb1c387
/model.32/decoder/layers.2/cross_attn/sampling_offsets/MatMul_output_0: 3e0c97e1
onnx::MatMul_4179_output: 3b2b162c
ONNXTRT_Broadcast_722_output: 3b2b162c
/model.32/decoder/layers.2/cross_attn/attention_weights/MatMul_output_0: 3d3810db
/model.32/decoder/layers.4/Transpose_output_0: 3d933298
model.32.decoder.layers.2.cross_attn.sampling_offsets.bias_output: 3d06ad5b
ONNXTRT_Broadcast_724_output: 3d06ad5b
/model.32/decoder/layers.2/cross_attn/sampling_offsets/Add_output_0: 3e2e4337
model.32.decoder.layers.2.cross_attn.attention_weights.bias_output: 3aaebd7b
ONNXTRT_Broadcast_726_output: 3aaebd7b
/model.32/decoder/layers.2/cross_attn/attention_weights/Add_output_0: 3d3a79ac
/model.32/decoder/layers.4/cross_attn/Div_output_0: 3caee53d
/model.32/decoder/layers.4/cross_attn/Gather_8_output_0: 3c55f9b1
/model.32/decoder/layers.5/norm1/LayerNormalization_output_0: 3de5b758
/model.32/decoder/layers.4/cross_attn/GridSample_output_0: 3d0e3d8d
/model.32/decoder/layers.3/self_attn/Add_output_0: 3da72276
onnx::MatMul_4378_output: 3b20c183
/model.32/decoder/layers.3/self_attn/Transpose_1_output_0: 3d98a1a3
/model.32/decoder/layers.4/cross_attn/Gather_10_output_0: 3c4d5675
/model.32/decoder/layers.5/cross_attn/Add_output_0: 3c6dc088
model.32.decoder.layers.5.self_attn.out_proj.weight_output: 3b00f1e4
/model.32/decoder/layers.2/cross_attn/Reshape_1_output_0: 3e2e4337
/model.32/decoder/layers.2/cross_attn/Reshape_2_output_0: 3d3a79ac
/model.32/decoder/layers.2/cross_attn/Reshape_output_0: 3e5a0916
/model.32/decoder/layers.2/cross_attn/Softmax_output: 3bf7a16b
/model.32/decoder/layers.2/cross_attn/Softmax_output_0: 3bf7a16b
ONNXTRT_Broadcast_732_output: 3d010204
/model.32/decoder/layers.2/cross_attn/Div_output_0: 3d2e4337
/model.32/decoder/layers.3/self_attn/Gemm_output: 3de64afc
ONNXTRT_Broadcast_1616_output: 3b1162c6
/model.32/decoder/layers.4/Add_output_0: 3d933298
/model.32/decoder/layers.3/cross_attn/Mul_2_output_0: 3c94e8c4
/model.32/decoder/Log_5_output_0: 3db6fc51
ONNXTRT_Broadcast_1614_output: 3af14285
/model.32/decoder/layers.5/self_attn/Transpose_2_output_0: 3d24fb48
ONNXTRT_Broadcast_1604_output: 3b854a95
ONNXTRT_Broadcast_2216_output: 3b202041
onnx::Add_4223_output: 3a918306
(Unnamed Layer* 1728) [ElementWise]_output: 3c010171
/model.32/decoder/layers.4/cross_attn/sampling_offsets/Add_output_0: 3daee53d
/model.32/decoder/layers.4/cross_attn/Transpose_1_output_0: 3c55f9b1
/model.32/decoder/layers.4/cross_attn/Transpose_3_output_0: 3c7207f5
/model.32/decoder/Clip_10_output_0: 3c010171
ONNXTRT_Broadcast_1714_output: 3a52c58b
/model.32/decoder/layers.3/norm1/LayerNormalization_output_0: 3dcbc72b
ONNXTRT_Broadcast_2238_output: 3b3bd7af
/model.32/decoder/layers.5/cross_attn/Transpose_6_output_0: 3bf03ed2
onnx::MatMul_4377_output: 3b1b56ad
/model.32/decoder/layers.5/linear2/MatMul_output_0: 3e89768e
ONNXTRT_Broadcast_2352_output: 3b810204
ONNXTRT_Broadcast_2624_output: 3b1b56ad
ONNXTRT_Broadcast_1721_output: 3ab671d7
/model.32/decoder/layers.4/cross_attn/Transpose_5_output_0: 3c4d5675
onnx::MatMul_4354_output: 3b3bd7af
/model.32/decoder/layers.2/cross_attn/Slice_2_output_0: 3d4d6654
/model.32/decoder/layers.4/cross_attn/Reshape_5_output_0: 3d5e9909
model.32.dec_bbox_head.3.layers.1.bias_output: 3a9972e6
ONNXTRT_Broadcast_1208_output: 3a918306
/model.32/decoder/dec_bbox_head.3/layers.2/Add_output_0: 3cca0d84
/model.32/decoder/layers.3/cross_attn/Transpose_7_output_0: 3c8f6d2b
/model.32/decoder/Div_3_output_0: 43e2339f
ONNXTRT_Broadcast_1110_output: 3b0ab56b
/model.32/decoder/layers.4/cross_attn/Unsqueeze_9_output_0: 3c01014b
/model.32/decoder/dec_bbox_head.5/layers.0/MatMul_output_0: 3d4f52cc
/model.32/decoder/Clip_16_output_0: 3c0101a0
/model.32/decoder/dec_bbox_head.2/Relu_output_0: 3d1717b2
ONNXTRT_Broadcast_1592_output: 3b23c78f
ONNXTRT_Broadcast_1734_output: 3b1fbf7f
/model.32/decoder/layers.3/cross_attn/Slice_1_output_0: 3bff44bf
/model.32/decoder/layers.3/cross_attn/sampling_offsets/MatMul_output_0: 3dab4247
ONNXTRT_Broadcast_1612_output: 3b20c183
model.32.dec_bbox_head.2.layers.0.bias_output: 3ac5cb97
/model.32/decoder/Clip_11_output_0: 3c003b30
/model.32/decoder/layers.4/cross_attn/Softmax_output: 3be3bcbf
model.32.decoder.layers.4.cross_attn.sampling_offsets.bias_output: 3d060c18
ONNXTRT_Broadcast_1106_output: 3b0e7cfa
model.32.decoder.layers.3.cross_attn.attention_weights.bias_output: 3ab40810
/model.32/decoder/layers.5/cross_attn/Unsqueeze_30_output_0: 3ca6f74c
/model.32/decoder/layers.2/cross_attn/Slice_3_output_0: 3e5a0916
/model.32/decoder/layers.4/self_attn/MatMul_4_output_0: 3cdb6cb5
/model.32/decoder/query_pos_head/layers.1_4/MatMul_output_0: 3cf7a7c2
/model.32/decoder/layers.3/cross_attn/Slice_3_output_0: 3e22c7f4
/model.32/decoder/Clip_17_output_0: 3c0040f5
/model.32/decoder/layers.3/cross_attn/Slice_output_0: 3c010171
/model.32/decoder/layers.4/self_attn/Transpose_1_output_0: 3d135dfb
onnx::MatMul_4229_output: 3b9c3871
onnx::MatMul_4348_output: 3b202041
/model.32/decoder/Add_2_output_0: 3db0aea7
/model.32/decoder/dec_bbox_head.2/layers.1/Add_output_0: 3dd74830
/model.32/decoder/layers.5/Add_4_output_0: 3ebc404c
/model.32/decoder/layers.3/cross_attn/Reshape_8_output_0: 3e22c7f4
/model.32/decoder/layers.5/cross_attn/GridSample_output_0: 3cb36c27
/model.32/decoder/query_pos_head/layers.0_4/MatMul_output_0: 3ce4c34a
ONNXTRT_Broadcast_1230_output: 3d0366ce
/model.32/decoder/layers.3/self_attn/MatMul_1_output_0: 3da67518
onnx::MatMul_4386_output: 3b056ad6
/model.32/decoder/layers.5/Add_1_output_0: 3d9eeb57
onnx::MatMul_4197_output: 3b0e7cfa
/model.32/decoder/layers.3/linear2/Add_output_0: 3ea75997
/model.32/decoder/layers.4/self_attn/Softmax_output: 3c010204
/model.32/decoder/layers.3/Add_4_output_0: 3ece059b
/model.32/decoder/layers.4/self_attn/Gemm_output_0: 3e191e6b
/model.32/decoder/layers.2/cross_attn/Slice_4_output_0: 3e10bb9c
/model.32/decoder/layers.2/cross_attn/Reshape_3_output_0: 3bf7a16b
/model.32/decoder/layers.2/cross_attn/Mul_output_0: 3c5c93da
/model.32/decoder/layers.3/Transpose_2_output_0: 3dea45f2
/model.32/decoder/layers.3/cross_attn/output_proj/Add_output_0: 3cf5d070
onnx::MatMul_4198_output: 3c02c58b
/model.32/decoder/dec_bbox_head.3/layers.1/Add_output_0: 3d814f86
/model.32/decoder/layers.4/self_attn/MatMul_output_0: 3d786db9
/model.32/decoder/layers.3/cross_attn/Transpose_4_output_0: 3e1bb31e
/model.32/decoder/layers.3/norm3/LayerNormalization_output_0: 3da0ff71
/model.32/decoder/layers.5/self_attn/Gemm_output_0: 3c8d0e70
ONNXTRT_Broadcast_834_output: 3b810204
/model.32/decoder/layers.2/cross_attn/Mul_1_output_0: 3bdc93da
/model.32/decoder/layers.5/cross_attn/Slice_1_output_0: 3bff7f5d
/model.32/decoder/layers.5/self_attn/MatMul_4_output_0: 3cad01fb
/model.32/decoder/layers.4/self_attn/Add_2_output_0: 3d135dfb
/model.32/decoder/layers.5/self_attn/MatMul_1_output_0: 3d2516ff
/model.32/decoder/layers.5/linear1/MatMul_output_0: 3d815278
ONNXTRT_Broadcast_1219_output: 3b262c59
/model.32/decoder/layers.5/norm3/LayerNormalization_output_0: 3d29c1a5
/model.32/decoder/layers.5/Add_3_output_0: 3dff69d6
/model.32/decoder/layers.4/cross_attn/Reshape_8_output_0: 3e2cb6f3
ONNXTRT_Broadcast_2453_output: 3c810204
/model.32/decoder/layers.5/cross_attn/Mul_2_output_0: 3cedc088
/model.32/decoder/layers.5/cross_attn/Reshape_7_output_0: 3e1599a1
/model.32/decoder/layers.5/cross_attn/Reshape_10_output_0: 3e04b9f8
model.32.decoder.layers.5.cross_attn.attention_weights.bias_output: 3a052a55
(Unnamed Layer* 2892) [ElementWise]_output: 3c0040f5
/model.32/decoder/layers.3/cross_attn/GridSample_output_0: 3d0423ef
/model.32/decoder/layers.3/cross_attn/Mul_5_output_0: 3c58fcec
/model.32/decoder/layers.5/cross_attn/Reshape_4_output_0: 3d206209
/model.32/decoder/layers.5/cross_attn/Softmax_output_0: 3bf03ed2
onnx::MatMul_4234_output: 3b1e3c79
onnx::MatMul_4266_output: 3ce3468d
/model.32/decoder/layers.4/self_attn/Add_1_output_0: 3d908981
onnx::MatMul_4256_output: 3b854a95
ONNXTRT_Broadcast_1738_output: 3a9d9b36
/model.32/decoder/layers.5/cross_attn/Transpose_4_output_0: 3e04b9f8
ONNXTRT_Broadcast_1620_output: 3bc81020
/model.32/decoder/layers.4/cross_attn/Reshape_2_output_0: 3d5a8e07
onnx::MatMul_4376_output: 3b7d9b36
/model.32/decoder/layers.4/cross_attn/Reshape_11_output_0: 3e040622
/model.32/decoder/layers.2/norm3/LayerNormalization_output_0: 3d9ecbf4
/model.32/decoder/layers.5/cross_attn/Sub_output_0: 3cb6b2d4
/model.32/decoder/layers.5/cross_attn/Gather_9_output_0: 3cb6b2d4
model.32.decoder.layers.3.cross_attn.output_proj.bias_output: 3aa850a1
/model.32/decoder/layers.5/cross_attn/Transpose_output_0: 3d206209
/model.32/decoder/layers.5/cross_attn/Transpose_2_output_0: 3e1599a1
/model.32/decoder/layers.5/cross_attn/Gather_8_output_0: 3c884347
ONNXTRT_Broadcast_2458_output: 3c010204
/model.32/decoder/layers.5/cross_attn/Gather_10_output_0: 3c617836
/model.32/decoder/dec_bbox_head.5/layers.0/Add_output_0: 3d4ff918
(Unnamed Layer* 2891) [Constant]_output: 7c010204
/model.32/decoder/layers.5/cross_attn/Unsqueeze_28_output_0: 3cb36c27
/model.32/decoder/layers.5/cross_attn/Transpose_3_output_0: 3cb6b2d4
onnx::Add_4283_output: 3a52c58b
/model.32/decoder/layers.3/cross_attn/Mul_1_output_0: 3bc56d53
/model.32/decoder/layers.3/cross_attn/Reshape_12_output_0: 3c1827dc
/model.32/decoder/layers.4/cross_attn/Reshape_13_output_0: 3be3bcbf
/model.32/decoder/layers.4/cross_attn/Concat_14_output_0: 3d0e3d8d
ONNXTRT_Broadcast_2136_output: 3b80e1c4
/model.32/decoder/layers.4/cross_attn/Reshape_6_output_0: 3c55f9b1
ONNXTRT_Broadcast_2628_output: 3afd7af6
/model.32/decoder/layers.4/cross_attn/Reshape_9_output_0: 3c7207f5
/model.32/decoder/dec_bbox_head.2/layers.2/MatMul_output_0: 3c81fe01
/model.32/decoder/layers.4/cross_attn/Reshape_12_output_0: 3c4d5675
/model.32/decoder/layers.4/cross_attn/GridSample_1_output_0: 3ceff101
/model.32/decoder/layers.3/cross_attn/attention_weights/Add_output_0: 3d798fb0
/model.32/decoder/layers.4/cross_attn/GridSample_2_output_0: 3ca8dd2f
/model.32/decoder/layers.4/cross_attn/Unsqueeze_28_output_0: 3d0e3d8d
ONNXTRT_Broadcast_2630_output: 3d176ede
ONNXTRT_Broadcast_1340_output: 3b810204
ONNXTRT_Broadcast_2218_output: 3b208102
/model.32/decoder/layers.3/Add_3_output_0: 3dfa111e
/model.32/decoder/layers.5/cross_attn/Reshape_5_output_0: 3d206209
ONNXTRT_Broadcast_2220_output: 3a672e5d
/model.32/decoder/layers.4/cross_attn/Unsqueeze_30_output_0: 3ca8dd2f
/model.32/decoder/layers.5/cross_attn/attention_weights/MatMul_output_0: 3d52eb34
/model.32/decoder/dec_bbox_head.3/layers.0/Add_output_0: 3d46b913
/model.32/decoder/layers.3/Add_output_0: 3d8f9418
/model.32/decoder/layers.4/cross_attn/Unsqueeze_29_output_0: 3ceff101
/model.32/decoder/layers.3/cross_attn/Slice_4_output_0: 3e1bb31e
ONNXTRT_Broadcast_2242_output: 3d0870e2
/model.32/decoder/layers.2/cross_attn/Transpose_6_output_0: 3bf7a16b
/model.32/decoder/layers.4/self_attn/Reshape_3_output_0: 3cdb6cb5
/model.32/decoder/layers.2/cross_attn/Add_output_0: 3c372b9d
/model.32/decoder/layers.5/cross_attn/ReduceSum_output_0: 3c4980d4
/model.32/decoder/layers.3/cross_attn/Softmax_output: 3bd45185
/model.32/decoder/layers.3/cross_attn/Mul_output_0: 3c456d53
/model.32/decoder/Div_5_output_0: 4426cbcd
/model.32/decoder/layers.4/cross_attn/Mul_5_output_0: 3c454793
ONNXTRT_Broadcast_935_output: 3c810204
/model.32/decoder/layers.2/cross_attn/Mul_2_output_0: 3cb72b9d
/model.32/decoder/layers.2/cross_attn/Reshape_4_output_0: 3d4d6654
/model.32/decoder/layers.2/cross_attn/Reshape_7_output_0: 3e5a0916
/model.32/decoder/layers.2/cross_attn/Reshape_10_output_0: 3e10bb9c
/model.32/decoder/layers.4/cross_attn/ReduceSum_output_0: 3c985670
/model.32/decoder/layers.5/cross_attn/Slice_2_output_0: 3d206209
/model.32/decoder/layers.4/cross_attn/output_proj/MatMul_output_0: 3d03816f
model.32.decoder.layers.4.cross_attn.output_proj.bias_output: 3ac62c59
ONNXTRT_Broadcast_940_output: 3c010204
/model.32/decoder/layers.2/cross_attn/Sub_output_0: 3c6d5536
/model.32/decoder/layers.2/cross_attn/Transpose_output_0: 3d4d6654
/model.32/decoder/layers.2/cross_attn/Transpose_2_output_0: 3e5a0916
/model.32/decoder/layers.2/cross_attn/Transpose_4_output_0: 3e10bb9c
/model.32/decoder/layers.3/cross_attn/Transpose_2_output_0: 3e22c7f4
/model.32/decoder/layers.3/self_attn/Mul_1_output_0: 3c6c5d31
/model.32/decoder/layers.2/cross_attn/Gather_8_output_0: 3c217fcc
ONNXTRT_Broadcast_2616_output: 3b7d9b36
/model.32/decoder/layers.2/cross_attn/Gather_9_output_0: 3c6d5536
/model.32/decoder/layers.5/Transpose_output_0: 3d8d6d08
/model.32/decoder/layers.2/cross_attn/Gather_10_output_0: 3c14068d
ONNXTRT_Broadcast_2100_output: 3ac62c59
(Unnamed Layer* 2339) [Constant]_output: 7c010204
/model.32/decoder/layers.4/cross_attn/Reshape_15_output_0: 3c985670
/model.32/decoder/layers.2/cross_attn/Transpose_1_output_0: 3c217fcc
/model.32/decoder/layers.2/cross_attn/Transpose_3_output_0: 3c6d5536
/model.32/decoder/layers.2/cross_attn/Transpose_5_output_0: 3c14068d
/model.32/decoder/layers.4/cross_attn/output_proj/Add_output_0: 3d02da81
/model.32/decoder/layers.3/self_attn/Reshape_4_output_0: 3dea45f2
/model.32/decoder/layers.4/cross_attn/Transpose_7_output_0: 3c985670
/model.32/decoder/Clip_14_output_0: 3c0038dd
model.32.dec_bbox_head.5.layers.0.bias_output: 3afd7af6
onnx::MatMul_4314_output: 3b27efe0
/model.32/decoder/layers.5/cross_attn/Reshape_1_output_0: 3e43bb3b
model.32.dec_bbox_head.3.layers.2.bias_output: 36e0a143
/model.32/decoder/dec_bbox_head.5/layers.2/Add_output_0: 3b2761bc
/model.32/Squeeze_1_output_0: 3d960efe
/model.32/decoder/layers.4/norm1/LayerNormalization_output_0: 3dd45f77
(Unnamed Layer* 2835) [ElementWise]_output: 3c0101a0
ONNXTRT_Broadcast_2141_output: 3c010204
ONNXTRT_Broadcast_2098_output: 3b27efe0
/model.32/decoder/layers.4/Add_3_output_0: 3dfa881a
/model.32/decoder/layers.3/cross_attn/Reshape_15_output_0: 3c8f6d2b
/model.32/decoder/layers.2/cross_attn/Reshape_5_output_0: 3d4d6654
onnx::MatMul_4316_output: 3b3c9932
ONNXTRT_Broadcast_2110_output: 3b3c9932
/model.32/decoder/layers.4/norm2/LayerNormalization_output_0: 3df699a8
onnx::MatMul_4315_output: 3b3162c6
ONNXTRT_Broadcast_2106_output: 3b3162c6
/model.32/decoder/layers.4/linear1/MatMul_output_0: 3d605d51
model.32.decoder.layers.4.linear1.bias_output: 3a9bf7f0
ONNXTRT_Broadcast_2108_output: 3a9bf7f0
/model.32/decoder/layers.4/linear1/Add_output_0: 3d6091ea
model.32.decoder.layers.4.linear2.bias_output: 3b014285
ONNXTRT_Broadcast_2112_output: 3b014285
/model.32/decoder/layers.4/linear2/MatMul_output_0: 3e3ecc06
/model.32/decoder/layers.4/linear2/Add_output_0: 3e40771c
/model.32/decoder/layers.4/Add_4_output_0: 3e958499
/model.32/decoder/layers.4/act/Relu_output_0: 3d6091ea
/model.32/decoder/Clip_13_output_0: 3c01014b
/model.32/decoder/dec_bbox_head.5/Relu_output_0: 3d1d9b3b
/model.32/decoder/layers.4/norm3/LayerNormalization_output_0: 3d9b9a63
(Unnamed Layer* 2834) [Constant]_output: 7c010204
/model.32/decoder/layers.2/cross_attn/Reshape_8_output_0: 3e5a0916
/model.32/decoder/dec_bbox_head.4/layers.0/MatMul_output_0: 3d489a35
onnx::Add_4347_output: 3a19b367
ONNXTRT_Broadcast_2120_output: 3ad0a143
/model.32/decoder/dec_bbox_head.4/layers.0/Add_output_0: 3d4dc790
/model.32/decoder/layers.5/Transpose_1_output_0: 3d9b9a63
onnx::MatMul_4350_output: 3b144891
onnx::MatMul_4317_output: 3b2cf9f4
ONNXTRT_Broadcast_2122_output: 3b144891
/model.32/decoder/layers.5/self_attn/MatMul_2_output_0: 3ce8f3aa
ONNXTRT_Broadcast_2118_output: 3b2cf9f4
/model.32/decoder/dec_bbox_head.4/Relu_output_0: 3d145856
/model.32/decoder/query_pos_head/layers.0_4/Add_output_0: 3ce27fc3
/model.32/decoder/layers.5/self_attn/Mul_1_output_0: 3c056b00
/model.32/decoder/layers.5/cross_attn/Reshape_2_output_0: 3d546e3a
/model.32/decoder/layers.5/self_attn/MatMul_output_0: 3d3a04a3
/model.32/decoder/layers.3/cross_attn/Slice_2_output_0: 3d4e1eb3
/model.32/decoder/layers.3/self_attn/Transpose_output_0: 3da72276
onnx::MatMul_4228_output: 3b68b163
ONNXTRT_Broadcast_1206_output: 3b9c3871
/model.32/decoder/layers.5/cross_attn/Div_output_0: 3d43bb3b
ONNXTRT_Broadcast_2240_output: 3b289122
/model.32/decoder/layers.3/cross_attn/Unsqueeze_9_output_0: 3c010171
/model.32/decoder/layers.3/cross_attn/Transpose_3_output_0: 3c207c7d
/model.32/decoder/layers.5/cross_attn/sampling_offsets/MatMul_output_0: 3e219f03
/model.32/decoder/dec_bbox_head.5/layers.2/MatMul_output_0: 3b276303
/model.32/decoder/layers.2/cross_attn/Reshape_11_output_0: 3e10bb9c
/model.32/decoder/dec_bbox_head.4/layers.2/MatMul_output_0: 3ca8b9fd
ONNXTRT_Broadcast_1116_output: 3b1c9932
ONNXTRT_Broadcast_2126_output: 3b389122
onnx::MatMul_4318_output: 3b389122
/model.32/decoder/dec_bbox_head.4/layers.1/MatMul_output_0: 3d2fa94f
ONNXTRT_Broadcast_2124_output: 3a19b367
model.32.dec_bbox_head.4.layers.1.bias_output: 3a9f1e3c
ONNXTRT_Broadcast_2128_output: 3a9f1e3c
/model.32/decoder/layers.5/self_attn/Add_2_output_0: 3ce85424
/model.32/decoder/dec_bbox_head.4/layers.1/Add_output_0: 3d313220
/model.32/decoder/dec_bbox_head.4/Relu_1_output_0: 3cd6dd71
/model.32/decoder/dec_bbox_head.4/layers.2/Add_output_0: 3ca8c5b0
/model.32/decoder/Add_4_output_0: 3db717b9
ONNXTRT_Broadcast_2132_output: 36bb366d
/model.32/decoder/Sigmoid_5_output_0: 3c0101a0
onnx::MatMul_4326_output: 3ce3468d
ONNXTRT_Broadcast_2134_output: 3ce3468d
ONNXTRT_Broadcast_2130_output: 3c1b972e
/model.32/decoder/query_pos_head/layers.0_5/MatMul_output_0: 3ce465f4
/model.32/decoder/Clip_15_output_0: 3c0101a0
/model.32/decoder/layers.5/cross_attn/Unsqueeze_9_output_0: 3c0101a0
onnx::MatMul_4319_output: 3c1b972e
ONNXTRT_Broadcast_2138_output: 33a917dc
/model.32/decoder/Sub_5_output_0: 3c0040f5
/model.32/decoder/layers.2/cross_attn/Reshape_13_output_0: 3bf7a16b
ONNXTRT_Broadcast_1710_output: 3b4fbf7f
/model.32/decoder/layers.3/self_attn/Softmax_output_0: 3c010204
/model.32/decoder/layers.2/cross_attn/Reshape_6_output_0: 3c217fcc
/model.32/decoder/layers.2/cross_attn/Reshape_9_output_0: 3c6d5536
/model.32/decoder/layers.2/cross_attn/Reshape_12_output_0: 3c14068d
/model.32/decoder/layers.2/cross_attn/GridSample_output_0: 3d13c280
/model.32/decoder/layers.2/cross_attn/GridSample_1_output_0: 3cdd925f
/model.32/decoder/layers.2/cross_attn/GridSample_2_output_0: 3cac4517
/model.32/decoder/layers.2/cross_attn/Unsqueeze_28_output_0: 3d13c280
/model.32/decoder/layers.2/cross_attn/Unsqueeze_29_output_0: 3cdd925f
/model.32/decoder/layers.2/cross_attn/Unsqueeze_30_output_0: 3cac4517
/model.32/decoder/layers.2/cross_attn/Concat_14_output_0: 3d13c280
/model.32/decoder/layers.5/self_attn/Add_output_0: 3d3cae77
onnx::MatMul_4289_output: 3b6f1e3c
/model.32/decoder/query_pos_head_5/Relu_output_0: 3b6f42fc
/model.32/decoder/query_pos_head/layers.1_3/Add_output_0: 3d016f81
/model.32/decoder/dec_bbox_head.3/Relu_1_output_0: 3d175de1
ONNXTRT_Broadcast_1112_output: 3a4e9d3a
ONNXTRT_Broadcast_1215_output: 3ab671d7
/model.32/decoder/layers.3/self_attn/Reshape_3_output_0: 3d60de28
/model.32/decoder/layers.5/cross_attn/Slice_3_output_0: 3e1599a1
ONNXTRT_Broadcast_2231_output: 3abddbb7
ONNXTRT_Broadcast_1120_output: 385fbf7f
onnx::Add_4285_output: 395dfbf8
/model.32/decoder/layers.3/cross_attn/Reshape_2_output_0: 3d798fb0
/model.32/decoder/layers.4/self_attn/Transpose_3_output_0: 3cdb6cb5
/model.32/decoder/layers.3/cross_attn/sampling_offsets/Add_output_0: 3d8d09d6
/model.32/decoder/dec_bbox_head.5/layers.1/Add_output_0: 3d1a7959
onnx::MatMul_4327_output: 3c83264d
onnx::MatMul_4290_output: 3b1162c6
onnx::Add_4343_output: 3a672e5d
/model.32/decoder/layers.3/act/Relu_output_0: 3d850e57
ONNXTRT_Broadcast_1736_output: 3d060c18
ONNXTRT_Broadcast_2626_output: 3b056ad6
model.32.decoder.layers.3.linear1.bias_output: 3aaf7efe
/model.32/decoder/layers.5/cross_attn/GridSample_2_output_0: 3ca6f74c
/model.32/decoder/layers.5/cross_attn/Unsqueeze_29_output_0: 3ca3bf1b
ONNXTRT_Broadcast_1238_output: 3d010204
ONNXTRT_Broadcast_1846_output: 3b810204
/model.32/decoder/layers.2/cross_attn/Reshape_14_output_0: 3d13c280
/model.32/decoder/layers.2/cross_attn/Mul_5_output_0: 3c748eda
/model.32/decoder/layers.2/cross_attn/ReduceSum_output_0: 3c7dde50
/model.32/decoder/layers.2/cross_attn/Reshape_15_output_0: 3c7dde50
/model.32/decoder/layers.2/cross_attn/Transpose_7_output_0: 3c7dde50
onnx::MatMul_4194_output: 3b278f1e
ONNXTRT_Broadcast_1086_output: 3b278f1e
/model.32/decoder/layers.2/cross_attn/output_proj/MatMul_output_0: 3d002fdd
model.32.decoder.layers.2.cross_attn.output_proj.bias_output: 3aa66cda
ONNXTRT_Broadcast_1088_output: 3aa66cda
/model.32/decoder/layers.2/cross_attn/output_proj/Add_output_0: 3d04776c
/model.32/decoder/layers.2/Add_3_output_0: 3dadefa3
/model.32/decoder/layers.2/norm2/LayerNormalization_output_0: 3dc32bdc
onnx::MatMul_4195_output: 3b848912
ONNXTRT_Broadcast_1094_output: 3b848912
/model.32/decoder/layers.2/linear1/MatMul_output_0: 3e08ead9
model.32.decoder.layers.2.linear1.bias_output: 3b693265
ONNXTRT_Broadcast_1096_output: 3b693265
/model.32/decoder/layers.2/linear1/Add_output_0: 3e0b5ab8
/model.32/decoder/layers.2/act/Relu_output_0: 3d95d53b
onnx::MatMul_4196_output: 3bed1a34
ONNXTRT_Broadcast_1098_output: 3bed1a34
/model.32/decoder/layers.2/linear2/MatMul_output_0: 3e6fda77
model.32.decoder.layers.2.linear2.bias_output: 3b5870e2
